conv1_param_0 138.066410735
fire2/squeeze1x1_param_0 92.028103407
fire2/expand1x1_param_0 139.5878461
fire2/expand3x3_param_0 170.705731271
fire3/squeeze1x1_param_0 164.533747193
fire3/expand1x1_param_0 130.071935967
fire3/expand3x3_param_0 163.819819809
fire4/squeeze1x1_param_0 116.568016004
fire4/expand1x1_param_0 201.742919491
fire4/expand3x3_param_0 211.399362123
fire5/squeeze1x1_param_0 226.228115652
fire5/expand1x1_param_0 187.774837613
fire5/expand3x3_param_0 164.517905157
fire6/squeeze1x1_param_0 179.423649224
fire6/expand1x1_param_0 266.047646946
fire6/expand3x3_param_0 205.425388157
fire7/squeeze1x1_param_0 208.861314918
fire7/expand1x1_param_0 285.459333589
fire7/expand3x3_param_0 282.445537501
fire8/squeeze1x1_param_0 191.398736522
fire8/expand1x1_param_0 201.295234323
fire8/expand3x3_param_0 240.640160753
fire9/squeeze1x1_param_0 294.368678284
fire9/expand1x1_param_0 244.22330381
fire9/expand3x3_param_0 289.679206026
conv10_param_0 499.107042642
conv1 49.4906895358
fire2/squeeze1x1 9.98222014204
fire2/expand1x1 4.64164351956
fire2/expand3x3 4.64164351956
fire3/squeeze1x1 8.62131845689
fire3/expand1x1 5.99257587648
fire3/expand3x3 5.99257587648
fire4/squeeze1x1 5.16507922754
fire4/expand1x1 4.10618861252
fire4/expand3x3 4.10618861252
fire5/squeeze1x1 4.82218032199
fire5/expand1x1 4.65886795635
fire5/expand3x3 4.65886795635
fire6/squeeze1x1 5.48024557171
fire6/expand1x1 3.16982531656
fire6/expand3x3 3.16982531656
fire7/squeeze1x1 4.33843067623
fire7/expand1x1 4.3446475379
fire7/expand3x3 4.3446475379
fire8/squeeze1x1 6.18709692924
fire8/expand1x1 5.64656766436
fire8/expand3x3 5.64656766436
fire9/squeeze1x1 3.8241139011
fire9/expand1x1 2.89411296766
fire9/expand3x3 2.89411296766
conv10 2.90697277168
