conv0_param_0 106.81247861952194 0.0 0.0 0.0 0.0 401.16253981230125 347.1670066716248 0.0 0.0 0.0 119.29459421932178 234.92452018242182 192.60978299622428 0.0 27.134331280773246 145.03180159965368 212.23625757696192 0.0 234.09517571148206 84.81235108027849 50.99688672689101 36.01472916336078 0.0 0.0 104.75785320158738 62.68175896010784 0.0 113.08670587970545 74.0197435875167 0.0 0.0 433.8323531226286
conv1/dw_param_0 42.069221163192786 0.0 0.0 0.0 0.0 35.98480127640527 96.11561951916623 0.0 0.0 0.0 48.48839709180639 35.07738026643122 35.61637202803861 0.0 52.942393323896646 75.95921551090555 37.77262406178559 0.0 23.294437654490405 41.65362927189355 74.39332221132025 114.5921464468905 0.0 0.0 58.052207650106475 32.90691714993938 0.0 36.6667798772521 76.18282650412091 0.0 0.0 23.983230181854626
conv1_param_0 62.29678922960854 340.00917592744855 244.76462736199966 114.33262359712626 111.08422042646369 48.32508250869994 276.6902728151102 649.946742474747 136.88059226390257 230.25951607499866 226.49146277411927 199.63238893859827 58.71502990001583 312.9968638710869 215.02880299446915 233.231347459475 37.17003312025393 236.8887136715961 602.8683431130203 111.41103620055578 297.3244552568304 157.18500716135003 21.94256849969925 251.11303800366974 250.05494479314697 95.99322990045604 101.70880161549769 257.0621829938925 371.84646017880584 742.4512410026146 202.48749265513453 32.18400561707158 173.09358845638957 148.4521526646757 244.76071911899732 65.30445761420339 516.9066894903558 326.2602880704121 81.10579258890111 232.79234509145815 95.46895209576277 168.81299178707903 176.6329593603663 138.76329899939245 48.49959747299354 5453.746773929719 234.62126316086201 105.88915421423846 263.12776699647793 186.40556889658333 159.83939381391082 44.43541174841462 0.0 37.818382571569835 52.84305103204223 129.1452679557718 115.61911044041702 283.5884015661933 512.3812507071463 323.9176159905697 30.7325153328927 231.7853895907168 38.86078604516249 120.7255609809275
conv2/dw_param_0 439.58235201946394 60.19031778086734 83.54558241372172 485.6886587128275 369.88258854188547 995.1531243052584 77.80683586513659 19.69283186411283 453.72263144277485 76.30747403433571 401.4559223189751 94.95585401719049 244.5651291145488 226.90028355261708 375.8308743240484 169.79876846656643 1268.0333718452598 266.880354680378 28.242653379930367 508.96893064235366 344.37924757232514 101.71626922635528 460.50639167628617 253.09245716197108 323.43685603991497 305.57692072986873 578.4457285935242 285.32764331353485 273.3067200323139 177.76728666300517 227.42879137124513 1689.7675135305105 384.92477342132 437.611881515919 243.3900314908534 815.4993912095539 127.46945872217323 384.25870179129623 568.5987964779645 157.3700725523551 412.19874624791356 290.02236406374186 325.1368184480978 598.4722759755831 1249.1614710155416 58.58798278777317 211.2753520237137 181.55199966053362 236.32340061547936 181.68826508141498 403.46727294193636 643.5528868879251 0.0 743.2669415435588 838.1239768345388 398.5626259299868 359.09640715918806 292.13565325479635 178.2281010002475 243.21791755089302 1868.0419828170816 364.39866910316675 1672.4284298631221 152.04113425611922
conv2_param_0 96.46700265291379 105.04045931140165 145.78904340520904 255.5959266958805 92.1496387634349 260.5571594549484 229.17280579827928 48.896701526182 847.933099963736 181.3341403573243 260.4396232504764 215.58651628641078 316.8176761931498 383.8140434048834 472.05312625416775 732.6332353403092 416.5832421504249 108.33120379718865 129.28577105377568 0.0 405.41724857099746 123.05181628367889 240.84582692091402 508.22034614073203 166.01408392322813 352.9610875946156 237.21098877952102 102.2473636844297 135.1481602982879 147.43819263893502 194.56484175434554 369.39885220926527 659.060780751289 319.7987874789104 170.26674205996963 217.11723072276473 128.099609936753 251.62720267614236 198.43109175885297 195.71867557635426 186.83510788298494 332.07825970134087 326.975727953087 290.7195935641286 781.7777150361503 221.5915703314254 308.1668498542659 369.75103649976785 174.56204630963825 471.77468337641926 99.52136435639106 172.08471126409637 153.52480430095844 604.4388353970818 598.4247918495166 332.3193568929427 266.62819550556344 255.8946054164415 282.59905354073385 557.7452344626198 97.02822448584804 354.80267389225037 453.8024518079949 319.8012594341049 125.33323953123264 74.92322149399273 0.0 367.0734746844193 233.49496113981405 87.6563378381158 99.86019670904304 141.50028177776468 181.6964921349798 62.81929725623167 327.5645131572323 273.14303097344424 350.88183467812655 345.4144425015245 105.27074623379195 374.06408454907745 695.5174017556482 239.51041328151882 203.17360969005605 145.67886968798823 159.13250543653163 345.0560201381127 121.60562729811227 173.2039448142211 119.77903833243707 0.0 229.05346732711095 223.9517181439444 210.76773173276825 127.83850985638115 198.0536049095804 501.28866865641305 487.9239210123011 431.1549283690466 50.18089353232481 307.459515307201 312.48685031526145 148.76089273860248 208.76175874710793 406.2736516591968 822.0745395618078 285.9593128917845 259.80478205429523 52.228962530569554 163.91851319656598 64.73575913302531 79.16118568660706 556.8103339003032 119.34199457750866 167.2078138792033 316.03275624317433 193.64863408007542 126.40026007277767 511.05771670357615 78.83739528277997 148.29941873373684 537.8714375780586 94.26875952385018 308.36424557251456 133.07175179467077 55.999936922399726 0.0 183.20194731551962 509.3959400498708
conv3/dw_param_0 90.74874288646488 158.82716418595788 184.41901063701616 88.53824173979385 146.60096112199932 61.96625430406351 133.2947072833417 273.1982260824856 50.88788382417412 134.8346805369982 73.51641587938748 66.03895800155627 35.71806234513894 50.901027697414264 100.85236161939994 29.33455104325888 63.975856490820014 60.08050803249746 71.94276524100196 0.0 39.907897488164394 161.2549095111199 46.82253427481789 48.83025977335604 76.54974529242223 58.755157488826434 27.69387724756835 120.54071867554623 94.12680180914462 86.394766326522 174.21132611400026 106.03585033060273 78.86296258982122 57.772431481295094 146.4082759077516 68.20184638328688 180.58225264980157 165.4166529123941 138.58176601950493 114.14324266757637 80.55438245594588 844.6419417945267 63.943041018255116 51.34947051907755 32.852303262216004 118.2234472448255 48.242202976820444 45.262175949544776 165.30822143491943 34.388552053784586 123.68926647209578 114.43338817511977 47.35658782890248 46.351933744540986 59.14735110496701 66.48855821087372 45.37538411476635 30.083930793190014 50.015347790002934 46.38443755115291 169.61619522098837 37.06287752898104 21.43903616614723 57.248873404038314 95.31320234394529 147.61208075181548 0.0 44.66506630081126 70.29680066227324 93.03629483059123 67.95478225193693 272.1889197714499 103.36975716743171 355.3449521514882 50.347705350059044 29.65587034977537 64.86891483191125 55.93989269192547 269.8551405210011 26.844489849646113 34.85019632637808 64.54624198536334 299.27549928201205 121.35433650640903 55.998005975555536 26.43033794211606 107.30020034816184 161.12890409535547 141.0358216137555 0.0 87.39518954243648 141.26275754916784 62.26909425876417 130.15218370906643 103.39922316151136 27.81827699802177 51.55237911079806 44.14662394856058 435.17433053113393 73.46457474907409 55.22627729204559 35.220390876890036 100.92852981866078 63.92465895500854 48.549538927739945 66.20521186038849 58.75483345080404 609.5664428492418 142.4690126988071 247.75555355297973 127.7050595612514 47.18024815402605 215.2552254318629 267.4351055117861 98.90236355836512 74.93875812288385 118.4747442767035 73.44166346399432 586.954935498029 186.19742110315545 23.014063432948667 165.28925509050117 86.50597826082543 110.25915931719943 120.13365890601175 0.0 186.1247815833548 90.50231978658388
conv3_param_0 452.3909068576921 405.6718553552969 362.73286168159467 417.9342283706401 236.34644266233974 240.000093715434 283.8849109769611 569.5029465347212 265.1920940460155 737.5445389780745 229.4841283022103 141.14568267880674 251.8168151952381 215.71972456156087 309.09992121290634 295.1887826107497 672.6737665994506 248.01599813013706 498.6751882986397 647.8614796248605 353.69335657086305 398.0909612773773 223.138215521731 535.9827168923913 271.68423468591476 329.77839150908716 468.30879362660625 269.0083293600425 297.42877557135375 333.0128975488687 428.8191332413523 342.2556569916996 0.0 505.89425020997743 438.3959435689606 83.08005302571205 361.43471387847774 584.280479011473 165.74177110186946 285.9803265134651 300.9453233701198 708.8284528544173 242.17033978645384 270.70243327809277 232.41432475972454 418.9376534489454 306.5742153546787 297.8349451158963 430.63326505107426 140.00149627091992 398.3014490001088 383.39203890372914 257.1709317943276 236.88481587033422 202.94570240174707 160.55429622920457 383.95946155736203 387.010148473624 224.9768215549677 167.85750298399745 797.4099251731078 117.77711156582447 146.14420940556244 489.1121808582496 335.3081257879292 368.1931996699456 265.28882142245277 545.7139181472572 224.785022423048 282.28940187140864 366.73766889834883 237.20071626451468 329.96397957007713 271.0859853472532 540.6274469157122 226.95284972117489 244.65476614912356 359.1147153750169 273.55931238948915 621.4300655952788 630.4683113474929 81.09730955054482 481.1464270915309 258.9891785101257 299.9801814039036 53.38648309542549 496.5874271024699 459.04474126916534 212.28817023333696 278.29160684999914 384.6306747046479 48.84792049296475 214.8441385952763 107.47991962158628 226.99516202507155 315.89010995038984 323.47265175041264 232.91309177067308 294.67547652450224 396.983447645602 432.8890747189033 1756.6460108655403 357.43738817009455 554.5905968585311 276.5896319637318 337.5365564357375 72.55502468334443 271.3603185350688 195.50925865263724 203.79285136585847 227.6356362208261 176.98073227456973 319.173436916962 304.17080223218755 303.0772528171861 58.60930719700425 425.7146777214553 363.5408902075531 574.8984431893209 638.6503324301775 464.2224269497877 239.3949688221212 220.11693859141286 366.44249117196495 230.35192071429097 227.6978141631524 208.61185681713332 266.35386905422286
conv4/dw_param_0 124.40422147492855 153.72340245779222 361.83585451854896 179.10187677723843 194.30329588717876 434.32275442187114 200.87878731311974 130.18174139838976 179.55775110810654 203.9836606775986 456.70797474620656 221.21670502413838 624.0899949876999 227.53356390254498 257.13950774834535 363.1914234786941 135.770982246916 217.94643179899114 184.4753737764377 181.88265970426465 243.25454255680108 182.07985134904638 684.4759109024312 250.0273626998133 330.0077769279926 197.7077248954538 373.2155843791874 251.2840049079662 937.0518433460923 309.2544528580696 162.714071376026 146.56255086717005 0.0 197.34091463954528 265.3926106061812 1187.3105664930151 322.13758772787554 183.70149523961348 312.8979720287063 338.7544586093843 380.4200126353982 278.549496084082 485.75764170586206 390.98665929726843 213.66295965676048 251.10273944754735 386.700433115156 139.41144769521648 183.6601355617512 483.97169318145296 304.7801914500739 175.62665415542438 247.28757809317446 498.61042208940233 516.4296661492367 713.4219765917805 503.8759409955889 349.5024860989648 167.92550110522183 675.0366476438617 151.738837077405 326.8689604134917 256.4671865446793 258.45310961868546 138.9371539989842 302.69467799808996 132.66818862797896 130.55655219489 307.55186910775154 171.58658380091282 244.24477638493605 183.08377309710355 253.09365969452577 360.72496780792903 280.97847679979577 475.68013816493885 323.01093613159077 315.28028772439256 512.4519241360832 208.91109789426642 158.84658300836495 739.0485154559077 259.0586585478096 344.2320873678337 142.47004152995527 981.1227261932431 203.15001535037956 414.2505556018922 306.5794646623881 287.82340364500016 282.4962040722977 1962.5276270039008 347.4208894270769 437.5159575183493 262.1520632401341 448.16986610999845 787.2259088059157 269.3971742146199 422.7434436969415 428.62353099268483 227.84285766071844 90.543031840863 236.9844607532584 228.90722318445975 235.5888888446615 252.81977766829843 349.415367227358 403.0127856446398 311.879927102843 452.53440526481955 356.43097890586375 139.25711627728234 189.56936841570504 187.50207301497178 127.35973328596086 2092.6956242357182 143.44535295212634 356.6007222034032 242.8494221872088 193.13440244766093 228.6641919738864 237.5212995442552 228.8859530062796 267.5975847842968 535.2417877202611 415.4763816127443 205.40984205846127 290.89200747030594
conv4_param_0 380.7397128262364 473.19210204413395 514.3191123574588 354.9100571315685 595.1912153203941 293.0719015703927 221.10114742505158 382.3804790033695 224.18874600513422 618.4909070616226 658.5928009690778 278.5047309520011 381.6893274651486 247.76995872451243 160.03990146913736 271.3925665001807 143.72965226797652 224.38293111021457 432.40694958081593 156.61048164689018 448.3051807212312 635.6506649669892 444.64231975418807 785.1397746880058 275.70612613229287 794.007133819722 307.24573023165135 124.0731768076156 289.50468611112694 321.58376120859106 390.89581356378875 323.06436886873985 270.66792504577757 152.3519258084756 174.022386396974 264.0304795855625 455.14260935394594 514.6073916352822 615.2548442293466 226.52818426518954 1027.8227190850491 594.1388207981979 129.37109951744793 160.42404403347007 271.37440231455287 882.1193786639287 224.8228531682337 97.06852004552051 709.8027933805351 1129.7751860478727 779.7386516567337 380.24607898626095 212.72339353239772 366.72936841568986 244.02566482104706 286.1272970552894 233.35362347569574 598.3761389423684 202.73103599461695 484.040519160116 507.0937896965336 569.7799291500974 743.1287071528233 150.3262961855814 319.8165960101323 535.9907055311372 717.069628943585 413.04647403370933 401.9380633932906 207.53833530348214 279.48474224113113 213.72461916217435 315.71248010318743 72.4383360454139 190.3569136239462 691.2539323728467 519.5352876094731 308.97450732367577 1134.2227990231352 257.33056031818217 340.97898809545717 2279.737884431938 441.6764151165354 207.13643295943183 171.94242726099534 447.60304680900765 130.15894174936096 329.2726864749956 494.04225651907973 253.5681673480589 423.8891632755172 268.37670897236666 784.6541713558453 242.13302241487955 1036.967526180224 243.37732646696162 693.6292418517244 391.8441477571832 1001.8126241785833 309.81316564572484 296.63185024584783 403.93641684246927 441.38161994043736 202.64076362440463 428.7646831136307 200.57906068997406 181.8007970303087 207.85418897553762 686.3466115623945 293.5394084799941 357.04880738735386 568.0940025163819 168.83224035514962 404.63467042276096 318.76295631665107 574.475905760029 243.74745474178144 291.525087678228 421.14107837643655 211.12755188894528 537.1643813971564 275.6658009576534 620.0673952759109 260.2744462191394 436.41488557994904 409.9709261511 866.6595005893263 838.4513947471122 230.02391153255465 392.13917319010704 484.7904606667231 127.27452770522814 448.804807149007 349.66962367755264 348.6752657808342 289.5796991748016 103.68751295055901 196.05210496590837 397.4517115442334 302.0770170016519 550.3179439603066 524.3518989365031 593.093154202502 779.3561879659384 389.1282977163094 378.42950046817344 380.45591219060486 623.122349720112 168.68304846169315 460.2427919742125 895.3423625776849 236.9860422571743 478.91213572320413 276.18778171859395 372.5763888142089 295.15582447541846 201.95341086215467 524.7586558318177 317.635220894601 310.81672065499026 277.2364696207934 527.6907875551337 160.45688028997972 358.4285732669816 241.6247165678167 736.2190399655992 154.90677427736685 282.15253008231883 351.2919352966625 174.21183889619346 375.37239517589705 374.5452115153628 366.2105932286049 449.3263935070455 203.95749594900494 436.67381515413626 138.0973635648573 555.3299392551885 862.9496662140045 434.3474120559735 217.87128444279793 284.5177810056946 281.98697744739627 326.02982000169385 200.28762596194312 1402.1475733327236 583.4020288266596 477.1755449559168 785.4393295383019 369.01343144566164 500.7618061871758 300.7874746753508 466.92314790760133 287.45162592412714 602.7330203743909 611.5443484555229 329.36837763956106 204.1401447036633 586.2681893029422 331.7387282427024 802.9378656772326 278.48742222745614 170.02303742562262 367.9658171201421 492.77643820174956 800.6908580522606 1107.7224216739558 347.0370107901685 221.23025663234512 379.308755095049 218.3087879190882 349.63734805458506 470.90031417201897 318.45014204818256 462.909040505668 275.09538087238815 614.2262794480426 832.3371934008169 385.64721088062305 333.5317839630976 364.7650757882027 493.0900448389605 266.25799393258006 181.01381977340844 326.33581702827007 279.2897371588322 549.3864368328368 802.0872319462923 550.1087284412092 545.2429239001756 1001.9037769476541 263.73819158732545 492.1328576856406 429.9162954067072 465.937726529472 292.681766648569 412.5813466043662 569.3488286492195 646.3107156609983 445.9708448512992 292.733719251941 399.77380529777963 457.09473633627243 285.8036013264402 277.1618735836342 263.79358619655665 242.0405766334935 354.69712699024404 186.04391363544008 372.3001995251863 365.9613252167237 508.69163828855756 90.88941734202557 667.8518199040368 209.34696774993512 436.83617165618983
conv5/dw_param_0 150.73549971953392 99.04928555218032 122.30977188237311 96.81778799172241 83.88533361868512 176.8097998819833 183.80965358795672 98.03075194287281 496.6672976678945 70.29066446332858 64.38954836913646 131.09356398807236 67.3746660763272 279.06219720575854 196.6391603393845 219.52575409398275 339.5864685392981 104.71715944737893 109.887426558422 287.2932200919384 70.31942062279182 110.16191803899453 126.25461295762938 101.37218289471492 185.23896963383703 67.05425332653488 200.1574267650263 131.0345500418618 125.99170386131742 111.70246541543368 121.60076922084772 178.35616598432475 184.11319155326794 199.73634469625065 379.67225048278567 79.85987821395966 67.05706848669078 198.40344992080927 92.66766163666941 191.46084099821363 45.120140975503524 54.3573684000527 488.9175127718903 431.20496947706613 167.57576647966272 53.98289638912848 123.12430206465893 329.25452161503745 180.8817423069038 51.60503432268155 188.79455232735302 188.37708262273296 331.1268273927948 291.45873129451905 82.00758961458435 131.748907016667 645.867170983322 114.61809818987116 225.24354782835198 139.82670334817894 54.70906409909975 107.63623578321429 63.58706202517631 200.64499935730137 110.04062158431988 75.4406052281913 40.786301938778195 150.1603492318744 91.78236234948699 181.06064251308388 153.78845435960477 159.8815641887988 164.57798638008694 158.51803913770078 609.1096688542558 41.8941393132929 88.34307142727427 151.21039500021467 51.889921126194196 417.257049306173 222.88076223798095 21.321894123800988 81.38818060932736 252.75826586549485 582.0736716951311 179.29985599337434 187.97095655905235 109.67932327336018 67.91290141704127 548.498916269346 247.15809440025686 149.40748593265485 157.74257647108556 135.8139937135782 92.73158528272755 194.11208470028419 49.965510183675164 93.2135977435264 61.441514210545684 123.61793580775 204.3639422411522 152.5774084003037 78.7569557406983 495.5719584848387 67.54409902777621 291.2927733033515 52.80174872956011 340.0455321619909 59.273065545736735 80.60076733726464 143.76980275115207 154.93392055877553 210.471197626593 52.26752177091357 219.38270031519886 116.69038394618556 143.44003205528676 212.19016013053835 62.74474653107144 294.9658658368276 106.9456184652419 134.93732004031324 71.9728261262428 195.15695235499243 137.88737352947058 77.77137598600025 77.22882178032502 69.51181406919828 295.14028845315414 73.31692560524046 117.44800277812995 650.7279764771113 151.27482983141715 136.4906432733928 77.03739493124613 135.07918861187042 459.77358630622444 605.8548203407884 72.32036272827413 154.6574965580155 79.11427450086347 75.78652898247101 81.51152726440841 71.32571197956355 150.39085000747824 90.12802023341932 127.43176763242873 107.32408926161935 224.73324222525213 69.47777379889442 51.11247272026634 269.15812224532044 80.81338335679432 203.9950659135585 76.69746790051295 150.20039338045947 195.09558913342732 108.93107542105795 171.18020970898246 165.76023535439575 292.129945676361 58.24524083666014 474.0588200939193 104.82702888911433 201.34054315574622 88.26396575134831 726.266849684315 74.79928604056526 316.04691310449334 142.67090975246836 287.46155390397166 150.6441885787771 140.5892690996646 112.57511141769292 732.0988782328801 96.33888178870113 177.98952983322565 153.11535536783146 71.17086668264196 72.6368955042987 267.05635176581035 102.41497266138445 292.2815826258486 112.67943840995498 242.41765134674108 51.440022519879925 108.70667215223766 67.32478678389387 87.77057047279553 142.93851723555449 155.7805418722093 129.80307433818572 155.5762328541373 413.02929955912595 226.4162750591861 105.54070598678058 72.27571485645952 194.02633730885637 134.87234526456567 172.13117184563936 61.75630589483855 244.3658997574125 243.72712893122767 107.69894407132422 155.48201665849746 66.50589121745335 70.87054295579463 171.93633621856594 124.87694802058884 151.0333695055283 158.79692053999585 110.66685849487502 71.89739344644094 150.08700624626888 86.1379289378583 189.53434415639637 118.88870182991072 37.54418316952933 155.95449336717815 177.2339109575926 151.78503650680193 101.80466254104282 143.2458820546804 138.3235006029684 143.4163583676364 151.94355392810374 45.770762360259646 63.02565139522108 150.10382839338453 51.34062138084289 60.045900213467085 153.97308040980838 80.37427478722402 206.98376804132474 121.10826729247704 98.78637051708414 108.74134642070214 172.38757256587127 67.097502860618 85.75909234013064 113.2596127656652 106.167694723481 469.30221312758135 138.23864835229074 125.42664367744369 242.23539747995002 201.44095336013595 112.17417136825964 156.5865881827787 60.74583099601195 96.21690522354118 212.93287562946773 431.01699373482774 131.667842344626 259.5844045152711 82.67670212722201
conv5_param_0 117.76922166204277 248.9405927915752 498.78188500451796 421.1749181180277 758.6453313517774 457.183202950579 1131.283424082534 374.91262540452504 338.1248247650018 277.1876179323599 400.7560364789023 344.66583343423196 429.17287777402015 871.3439180832046 597.4119001304267 205.32609206178594 479.57840622984133 575.8562144858603 370.9177208204556 447.6700996271493 367.56575102123094 295.8818475847174 0.0 886.6629278264714 194.29837015829702 255.44213246721205 507.34246215241893 417.3476871619601 374.3813763969306 339.1464289375216 425.81753732637077 183.0136994020013 594.0706541009871 492.9585665723415 309.03310032276 376.1534628055046 348.4682671921069 217.9332349174486 256.513855402323 698.7860427198788 139.19455364001118 260.8249375650737 484.56279341294965 257.2392997973916 257.34821407920083 465.7541928297854 516.6614903275997 884.8941981088439 463.35262611544243 244.6566202398057 446.2896110681668 282.4681161447269 343.05636294213537 217.63626019359324 341.08201479340926 362.4780672680844 592.496169204182 733.9776354000269 411.41509450720895 337.6840135383827 372.3204319022796 303.9327529952235 312.0401305799137 798.9995312590232 770.4329335852983 287.61230297158886 405.43618737766616 213.19901032411616 223.11723289810578 853.5534284996932 397.91558227823396 757.889686069146 395.7607886141895 763.0420572528707 301.44519552036843 499.4570339205243 387.2336381014795 367.014514142599 292.0439584659288 347.0360498957079 679.1975636686025 524.9678812009673 665.4248787641817 372.23551621338726 388.4039578548252 482.23304253910874 511.10859207722905 444.48356753988463 1293.8002547425322 187.95495551840241 284.2312851565405 611.3865068980557 576.22658912453 564.5475769066903 286.86724092898015 381.02795728536955 275.92039862328994 299.7104016018641 420.7881042947826 509.24588648418364 304.28804381666055 361.35502757174464 440.9994395161791 346.59945061867415 471.9560415706363 521.3225291418707 664.6740642511123 450.83624761577704 340.03964409493506 563.3142489958055 553.6923830626565 460.5319719363164 602.1473231626784 356.27891101749117 447.9341801317709 422.35989823113664 268.64654872748514 553.0069762838015 458.2273260472104 445.88759698763624 666.2348307312278 294.6520655279766 171.95295926138652 423.65793070757144 282.45231445953436 321.9050752282955 453.68200728397284 593.5486997410214 430.0966270207335 180.8103210669737 561.1307412640599 480.65967775573415 556.2232412351607 150.57158531182753 401.98424423483 262.8102569820674 231.0315436746645 628.5685511792336 275.98188734281615 483.2422543011878 776.5959224919006 244.36480675718775 422.04211792126614 338.1401983399647 378.27205484795087 306.3622759282395 400.8597438189061 388.9744650818565 349.2813062527345 301.11135886071236 253.86829342687204 295.22671811053254 436.94107147544423 397.353279697858 455.803325961608 680.2535297603237 619.4841021632525 416.17221395253813 361.572838286455 506.4014617553613 360.8007106602767 256.36527808876997 413.3700933547762 391.8878579136297 547.3920457293331 386.7994150554687 297.0228014182667 352.8791614859899 225.35587357686825 173.19021824080008 250.33704191026783 231.3211661105038 1150.5789736471797 235.20147953393445 258.2672428197481 386.5820021919008 139.4113929653565 309.34400337290947 1107.3380776306249 439.2341084756755 363.53152432571693 291.8368961698218 379.1816825920594 615.0257942315275 475.45606490836 267.97556772490725 394.23950454048486 383.6222807407325 284.206698891868 225.45867289502263 205.57356046600907 287.70651890206005 300.265700873864 859.1080141508255 439.46013659791396 906.9548061659716 191.07615375544174 458.59559198997965 772.209680008901 432.7085033554253 583.1284036959452 521.7597951951448 160.34634404741487 546.3697260748888 497.94570428770226 284.36437500483794 443.8864460775531 466.180249328119 313.96829514787316 292.01666135934465 257.8364219377994 441.52114568454635 301.3792343445969 272.848747975442 408.33380819139256 457.4651120299843 170.36040403445992 350.2358306101115 245.7122643919179 670.9546075717001 119.09996272792256 577.075185841916 347.73824057254313 338.6411533504028 158.11812702679376 746.5437573983622 553.9148816308502 419.40076124541594 245.26619733906492 322.52404951660895 226.22902840834286 257.8484503847445 232.15203117432705 462.61350372709205 348.3170798931397 296.804135492831 479.4477764767974 142.58980175814494 490.6203269372358 219.11459050725693 321.0085232650628 190.5318836130645 434.67185189499486 304.3713710926781 470.32913161107933 279.08312321717807 171.11012787084618 550.9757168148001 315.1964297865718 191.89390362464667 1152.4290244434071 517.9228945742533 243.58093322756508 318.8866839955796 0.0 401.3944741408226
conv6/dw_param_0 591.7113539254668 452.804450038279 218.75276823005242 476.561971936675 176.40215629397466 393.54250761566266 82.24308337254989 426.34951550337183 290.27390960120937 272.69445380676507 301.6453235347623 324.7335563650374 437.3095603376388 234.37103263299062 112.35703389716106 708.1787492009664 290.8246488398852 189.41072454206025 164.94906327608737 126.30622435811178 249.32852019692996 347.96130548704105 0.0 150.03216749811853 675.6681270370843 574.336500952968 277.1542485496501 165.05092510969536 352.67429360249076 209.48921557060493 217.3797178714216 690.020409412385 146.61510406943592 140.84132471749524 141.44695489663422 321.0364067174108 459.28385216997873 506.765015933427 552.5167238426959 133.0793317685145 1258.7715712671945 576.7252224020546 117.53960251246141 321.36610301451566 258.39138020502685 197.4637775956812 231.18784012270376 303.8953429074269 183.13315253569505 643.567514089418 371.3280977164881 445.18459152394666 222.81370730479992 256.76100613810837 296.22728531876174 167.6661342736731 370.80127290591975 334.7760222091883 351.8851748318385 246.0533008019371 383.7393541106426 213.76463007152722 221.57481764614982 173.68851036079366 191.35744757399237 443.7633047364045 304.3841328446231 343.10235150083275 590.0304843548034 302.113166823971 239.28898715826008 134.84081573036426 330.70082879055 300.65053484647285 214.79603531285758 265.9789996188898 399.84683849939006 287.6547818227352 380.6430935558839 333.2134785985622 144.7457349490569 279.63859730700193 179.41138155356467 112.19133559256349 198.59847446781836 232.63130707676558 556.7128596898792 218.32475953301778 133.1047043659548 542.6591279035451 207.5903007775333 173.2901974584886 410.7167371914285 183.69278472403448 453.85585822580106 125.15549273357873 299.64698830864154 162.04374764905324 276.62683396824974 276.4790904803542 702.9198970811196 237.01780859693378 147.65720292211662 244.24693224967976 70.45882960853157 131.9823583845091 289.8976323079983 143.58757960066507 375.49748940672737 250.07035233441326 248.23314062614864 228.93489262591623 254.85695059023183 547.3346050148383 615.9468917606042 429.0799692936987 521.3740335985118 338.6162089195471 111.6754054884153 263.64438566725204 230.8936220475598 400.51128747815306 157.71512590598766 187.03279748500591 170.0156571603569 379.9232438610584 188.82865103441577 104.20274319361101 228.54324975142094 400.4143444383598 187.21659331322374 188.18242591470937 134.21376288158794 685.8682916033938 61.897237474816464 223.17951468160015 166.9800304022328 110.54779762700922 334.32996512117523 345.3735982156751 92.04352828860118 762.890429042668 239.2410278429141 234.1579479442748 147.09727845657886 308.99903973766123 331.710762227993 249.3485654689265 319.6878528435059 519.0174000137263 245.86460513504338 162.5512072139042 154.18610591056293 99.64237124838743 490.01605523892664 197.95691024264815 445.91213881058366 358.59421998082576 282.99554562610365 241.98263118037923 224.4580747039558 476.64203423325057 237.8051889522652 130.3560840017527 293.9189207233802 241.18712926943624 222.26876945967268 396.85578963111914 346.5219723736285 608.9185803554977 192.91000445447204 212.5212968996441 58.01326162766637 205.58316058334228 544.9132828509413 454.5982746567934 466.2547694850118 226.62496930143413 157.53274260150266 323.02413350026984 305.1538553252567 227.84219983669237 274.29037630139334 282.38716054782174 246.6936564249801 420.3713118112105 293.2860090869248 215.24409194280165 302.3364894081803 362.40081729157106 429.885719986801 627.3632030965567 290.038767504349 37.64736321187173 230.35590534019315 283.8062411210919 157.69279653161266 202.0675785839171 120.34893641729634 151.4797172633605 262.40412810805003 345.21971409730673 175.46572408853748 166.36674093168529 254.36564685733666 160.37202645215953 281.9235114594013 255.85094190975155 321.0544017334203 228.612890565066 277.2032868271918 386.21079755633184 681.0196764614955 216.61963092323074 379.88690290947704 334.9435841763489 250.79246294828266 194.2551301451653 444.9058118843595 259.7409646665218 561.6089458629008 238.62250843945247 247.77583651565453 478.04765272849465 246.76079596938123 160.64526560824223 358.05528389159394 391.2166700726118 177.40873718948674 254.0234382320871 413.50306152806843 242.794381116632 441.2637480569087 190.82740064345728 271.3750244538637 502.3252380479748 373.42833004501125 169.00016577147426 300.71227283992226 420.87504530807814 215.2680782156172 562.0019023919298 249.68842442708768 271.77603283700694 234.44811463330552 395.30775581568366 791.9917273597059 300.43143188273297 618.5159528562625 708.4640220847789 97.8132190445761 473.0920273010156 157.69853876724923 561.5871865626432 0.0 410.70699950018303
conv6_param_0 363.85368368510416 180.5940993109441 488.04104507397153 642.3806003875316 277.95119164674855 344.3809174078234 371.923407783539 301.0329965471802 360.15967396917347 557.7722819792544 584.5519391499372 346.32126511311 247.2489540079112 385.32002099207443 164.45438980442975 1214.2312476114323 305.6782986278734 362.2254779217293 292.197229174462 694.2917613262376 342.7859567418846 522.3454635425074 289.0112550194818 370.8728500205305 421.3775291573701 606.3175502818833 214.03424678243923 293.95294145888346 342.7363040005701 356.0168295015036 508.1904364391502 305.79075878058643 286.63205021473794 458.0210146896464 214.41094747375317 709.086992767381 547.1070698809891 119.58753576895221 560.1707328567195 575.5434822436512 425.3800687669416 326.05034996709975 381.93786084970384 558.8342051294593 270.7765172770261 792.3885380880964 318.4148068490584 795.2932131445257 250.31977817507598 675.8264494842902 464.38395525258795 510.20772925141245 364.2266215403319 366.81516871776904 371.09453346502534 463.8365398556009 434.01664869557584 399.2292431211999 401.373453729308 1001.1754893414274 681.648993097553 463.5732502050033 290.2682745376218 388.04631409018924 417.9641111404156 298.20728821898626 2301.3104893287473 252.73991709320674 632.601137013015 280.14106434613217 343.3122876409158 555.829440154245 188.70451266965375 601.254620206787 386.6493473735479 225.6623782436155 517.7087422706563 676.0938640232652 282.3614142305774 314.67890346983876 686.3951436087517 476.1320043896883 440.89947027869164 337.05658941112085 353.6415504248059 712.3453254631343 206.40048140270144 489.5514121632722 558.0934023734025 311.7189987599014 344.4376457716757 674.5521732809035 388.71140960411833 444.9159381408555 672.4313848756257 1092.409117438304 472.6677712629422 326.8653751174235 604.6905254345215 780.2851186981396 495.92930067010883 248.457414000726 570.9185524456989 157.87687271214637 294.2003048313006 151.905964738274 292.03267077373346 208.37756371012065 415.61232987975814 458.9162596122388 574.3814778370008 714.3251076286922 335.085753826653 461.6560725725402 411.41783519026256 618.1831172283535 496.8077701088266 520.1447285460935 357.5213847296528 442.3626357815835 482.7208527325232 161.27293683739177 278.8648977791849 130.7173199097822 380.1656494511104 867.8906311210172 229.8618688284211 740.6869060337365 371.1652540062541 917.7098721995844 365.98766377778276 280.43610756331543 682.8317328160915 171.37026079053513 299.1804026264947 790.411602808147 1335.0717547991821 832.7304775523105 534.9417519810447 439.4682036216468 362.8995139099422 526.026677374632 246.2653962506562 610.9500376305034 344.10164008582245 324.6748700397785 370.4663445547419 855.5651194939625 389.34630821527 379.2515366164322 635.2078966236329 759.8336844021579 297.1002909502021 277.62698145121976 406.7404191893392 636.0415486984352 377.44873837515604 474.84949576225904 442.8958596107301 729.8861410859452 210.4451297611005 354.32284489105734 494.16067490636385 269.3208642459841 490.4310603712667 442.19454010619944 416.5543301470976 535.8620062045073 299.92824266256986 308.2053859332518 396.85434826317845 449.839363897349 744.175004760879 414.64201927932646 528.2567498064631 666.4386821650387 496.966751468977 253.26008009398657 312.92218935017695 310.2499584650427 592.1137648666286 357.59587810191294 417.20537311591676 458.3724807821674 1363.3440007358338 359.5454510094857 271.0893136525825 373.7207149871166 506.5089019140283 226.92592313318926 396.4413292047642 300.0360461798114 169.39255315791303 307.658782070826 720.6702419338541 368.67387712868856 390.72657226993994 590.7273475203673 871.330021332329 600.8753605466886 371.598892758282 699.6887194211388 407.6871638533142 293.7664513438289 279.9448116096798 529.3063819395951 527.0375043425984 618.7740246668131 202.605675128814 223.14609086554282 172.10690967536456 384.1139225057413 458.2481201657276 496.569083651374 341.1421674910604 325.708462990729 503.8938749303089 428.96961174109254 1278.5206432126913 1128.2319071645911 441.1368970552902 344.3450195128794 268.73083138752 518.4739853111242 344.24407246277883 586.3930720676203 394.50717616885385 524.0777047940225 327.179399015624 380.8174587486233 367.69321428854937 402.58963189810794 569.3072223738907 607.4772569492457 366.32877284873615 367.9059978580466 447.2039671680617 674.7464564794678 370.60082340029186 438.3862923169984 312.0373658748256 445.720681642867 423.413403208489 353.551358833966 266.15743338917247 1369.5556683618138 241.49816499578142 598.7138472847354 571.6580412930266 483.9375073602818 427.09631647326586 170.61711303615868 544.0268093314602 341.9927686893059 281.2219214643927 777.4206917990701 561.9437260169309 254.81490510215468 493.37343198919757 704.6326495399043 400.56320290926783 622.9637121882422 626.1462761387254 476.28004923058216 674.6127746394235 471.2068498279559 457.8158727143788 757.7215052036964 479.74426445363986 363.7408521124843 296.5084254576214 587.1000081904984 520.4685624575657 127.69362540028118 812.7574466859597 363.52036032885127 590.210104550971 470.4079959624558 370.8742056698135 408.85086083982554 708.8077023515632 413.9584478829597 300.48271873494997 383.5366886467129 591.4029587683856 657.7491252020152 247.30835859568924 303.7979161810007 685.253421754246 399.6854284271768 524.7783332987497 437.39816558961434 274.9690319756518 259.82661067897925 296.76583488590455 532.7735061814368 511.99474045757273 357.2182714071083 277.59330729468115 317.06806481549893 368.500605878749 292.4828526319568 406.39205490386433 461.8053598259593 567.6027671716834 307.51154348261724 741.4394509181927 834.5137717660485 649.5292305180877 547.7854904512538 620.0730794675222 245.32711030820946 432.4559212712181 510.1946266781155 308.185793512381 165.50357512897426 318.5180742802477 858.9887841366331 319.98654880148075 349.2474993851266 308.2765770913736 685.6942515071422 390.72764703795065 330.31893454908277 323.03493214952744 622.1704628625332 447.54856355660877 344.84391874351405 415.6432598919315 442.6950257680472 269.4393317894394 507.7144464542423 481.94273704286604 315.56259811779705 533.6256946495402 652.1595299152068 630.6138098443322 548.9776412802526 362.558188014278 460.993501497624 205.28860386250108 262.9213291091483 514.7552744318369 444.75100260187 467.8774009880798 485.2145575769542 780.9991410941415 1072.3581273775621 592.4187017125095 692.4418566465744 287.80143800330404 397.47899646883315 829.0936524350442 504.72111488855285 271.2292453670819 213.4379913268727 453.23827249244243 312.7091641839236 344.0248300346155 439.25688193494267 631.2269559492635 319.6152735948435 317.2960023087916 495.2613466735283 492.9556583015766 496.05567018997755 853.3334529473046 572.1641598923721 343.7606044631308 595.4532326652355 816.3654326777372 1091.6241751732075 262.12706881014697 882.3585583852642 466.8246841652546 527.912200391467 255.5144561241259 429.19552761360393 229.5761341529968 355.21551173627205 373.9681649744513 306.211456573815 379.18404438506064 647.8038656356015 558.5544715778566 183.8837342568313 190.5581082869766 308.7662172781906 494.2999621742312 361.1827494947449 335.8441468454278 513.9431861366252 339.2383045969302 560.3490979858447 399.19708027009 495.61645398860486 563.9264513181844 186.30513465963676 291.5292957872317 480.0503124192789 230.7405465914839 222.18324457466068 421.11598303959363 393.8759894239616 353.75084540004093 237.67502302619727 507.23472848847507 215.3894397526006 326.0480798194874 423.6501809708732 196.2557272474561 295.00854334242825 1000.9449131979922 488.0378032890859 326.1163227866875 688.5241867747496 419.6755136316821 635.7720056917043 431.55986576254134 217.16817227447478 631.4651467528928 429.40147415235435 748.0577772566126 662.5633796072146 576.9199499247884 709.746875754949 373.2853500089261 552.033239518797 868.6227566489779 257.40747134195607 430.88515965372363 505.4252774262125 332.5212307227965 881.5049010213069 255.72332468843004 496.8577594760518 705.114407669035 265.3543865194351 427.75851301013745 462.5595227447388 269.2916422715194 344.719532508206 435.96720240115775 517.8782373672313 552.2083913678015 378.71166473552205 360.5173878430865 512.967900360734 231.31343141317456 336.57474224829576 315.02186118262875 467.98098606483035 275.8781711586667 231.89631032719626 412.0337055587447 367.1609861741655 607.4294154795965 782.1989544402699 314.43449988470866 551.6661998477077 462.81271465869645 330.13064531847897 376.61668228165 570.0500131964294 528.8437468393137 499.2429328412852 244.15776162541863 414.16121760348 304.36978410123726 499.1260417704948 337.6067516709955 299.87649072239236 394.27313514199676 343.62197987075064 474.3332083334307 404.1608759150948 386.60774492348656 520.106289124717 302.3223759598036 322.0183329393821 901.0274362808447 286.6476289017482 545.8362072349913 502.80360053204 406.3096380161425 357.8853856490191 346.6261772333484 635.7004474682748 397.115961629697 276.59945217714153 270.0242189715298 390.8608565599836 444.9321504011049 170.97356597929195 1132.573506393962 290.9701849663218 235.614653822664 235.3184754872266 425.6385221776038 537.8997490380972 538.900334279321 224.6403869028102 371.7769718301319 297.32177921158126 400.12638900404096 659.5095222648406 304.9528216208851 598.2902384034934 338.292345974207 689.9172979232765 505.0571175991145 663.8304123574834
conv7/dw_param_0 120.8194417384066 283.2885937164288 136.33780447719278 90.30376217213225 510.2966551684415 123.67973181657446 107.01657513839737 233.07561660330862 279.94253121835266 96.89337468141517 82.3781639255174 85.60630843505857 167.00204388189425 113.32909484755483 276.3064924438047 75.49956458635704 512.0865672915215 119.28517743245686 622.1028416951295 100.14353998801684 189.95405188769112 151.60041816458818 93.00958012807669 184.9557426991877 414.8995822197557 100.49960667213115 169.86543719549957 164.17844888319001 94.90647827072696 117.63960638139521 134.7984013022396 88.1224742773892 140.57190577310257 123.84598017052065 168.14249715988632 148.34456969099907 131.57533880377648 482.9419208958617 70.74766485597198 101.56184805684128 179.55313609036634 166.0636526832094 124.84857209454454 192.07675041771856 156.73318277224539 83.20806530409494 125.11436723395735 121.29312943412802 133.46034579197487 178.3233414983367 115.59074695256253 147.3141559785811 128.46531422869495 98.47890061143903 81.35443255273226 91.45655082233814 121.5495886824993 113.63206446444298 351.43241337774646 74.05378414841603 65.68687453995896 70.99145013234683 167.92126615105397 171.86729758425824 112.7210230024892 187.52354219962243 27.827650521184058 190.46050524129066 58.55137171432359 155.635211507519 161.84679587684246 103.79784039567674 70.26551399957076 115.29676921105582 224.13759378968115 116.94521127627911 81.33247096057454 136.80121572748885 107.9564495056474 710.5868032919943 120.38131569199923 147.57716606429432 181.1629553611132 96.04187299432567 171.78151347223513 71.11755565957453 252.27683471731748 117.62877361042563 274.2775770293899 117.00771061296875 206.80621412604378 90.0862178354022 144.84408299057569 83.59321413623798 69.77809708593897 51.04654399625265 160.05711708908612 208.50392762595797 148.56736035079837 124.86550243869965 120.1141953500664 580.0397146470202 89.9262491341665 180.54185712248483 118.32895561391922 351.8149584723546 120.78707288007054 93.84056110910426 137.55983851051815 121.06935917471937 83.36788622530507 93.96527647987477 108.67349433575484 147.00191253002106 130.48126245858975 131.4032240717004 169.76479770585962 121.45353178074839 109.23122468713579 158.68137877742203 88.58919674908108 262.39651790884386 546.7199645391322 494.2829912950363 195.39322292844102 75.75645229199642 231.53248812512606 98.79958115447381 233.86675309916143 55.75180513161018 140.72807932477144 140.31380834641726 52.38304732657716 109.47160174344316 186.99340333987624 87.65411650989324 50.64378117541135 89.75368095554546 162.64163599572876 126.75940427364766 170.26162629208102 82.40827256352345 167.4148939797921 119.46413664588194 119.95648498327472 132.1314657916221 132.80024122987848 77.17575728686975 104.58973292907996 134.37796578849614 175.17839926215973 117.20165686899637 587.4411790694901 243.810014820565 104.73419713839137 137.7947049406305 90.00373294498405 170.80813335099103 364.0716874074584 73.43848922108079 110.72603633270572 124.05423599659144 142.0973316099685 152.27837492084865 209.6067243940095 127.11630268372268 160.3699261722523 115.72498477879144 207.6288569621087 137.29614541607077 119.02800062834886 391.3345441091215 58.73512569890922 113.29983138279403 110.38394619111 103.63447854752827 158.1030974222899 119.80892886743764 212.07609116288253 108.57853067452712 135.86667442911715 148.95183732693673 125.55026002089218 106.01849205309038 59.699767477854806 210.42817040729338 344.72862341541116 270.6103105811335 109.5918605079385 227.531158443733 138.74996162849388 236.11148834561112 118.98656344365408 132.1152766950087 123.42263613086989 137.75115132772004 213.7617992254356 175.03069677729923 59.9099958712361 91.3168248395414 201.23297271685038 151.0207697407656 132.70835541291748 385.2683240128105 161.43941300997562 142.95699769606912 86.20150677205926 90.87851634434968 212.6139060071155 152.37139519773038 138.47534549029723 165.04039066128425 115.08978412857954 109.17489768887272 249.1049146250928 160.49489192859335 77.45961554960643 197.47838208165516 44.1040261532546 68.40293550984158 135.35021927088587 136.77409836215003 161.5404019233159 93.0948462652944 337.4691162919467 99.65710762055822 166.9334966284346 82.080218253288 166.99275092040887 109.45545073348339 118.53176771960298 96.49719159464762 93.24820736147014 82.79192924313088 143.3445741009893 82.01942761721713 156.97503399445554 112.69200116103033 285.2847030180077 138.5087959353021 124.56314649054171 107.84892146342452 158.1300377590265 306.92293465954987 119.25823093119425 42.34781845495145 185.96706000642376 135.57844882484184 168.3342372965984 89.25964411369466 164.71862684745486 553.9524321725876 240.28593251737632 147.81033882575386 112.98064122033783 73.87212073123436 96.62269321782118 162.04533742130192 141.84795040083392 116.36033443433058 140.02786563858515 96.72133644361072 203.76498175425752 126.47495890036271 115.1499918827256 167.1430309991455 119.58937486943542 115.94025604180388 167.57460669201632 147.2642048154358 123.39901922776436 66.50796298339083 81.188493224304 183.85791821898155 155.23753573559907 95.87354143922998 114.74647616234915 112.80771243041198 153.1916666630718 75.44163093642089 74.99298122439338 102.5586213143964 77.30329648385892 88.02711823625371 94.48762919560038 111.06941966338253 135.93883785181174 174.90358513096632 70.2288983842623 171.5156166320784 98.93336126693754 99.78230467533501 249.21228033752973 637.8722225178514 103.69254889502338 153.85267259272416 126.66111397242581 171.64176272263438 110.06617856877929 170.61091060966532 121.6824086727937 143.76449655825178 108.27473353936315 201.80844063835946 97.24536491935281 260.0212502387314 93.7763958829879 77.50552605784884 73.51687753609517 166.33102607986424 87.89565847002696 115.71386074842589 150.7573741197061 78.2783312919137 126.89424733125058 113.87183330158805 206.97441867242247 64.54459955660141 156.9806084186648 99.81834549495359 167.15265540650952 62.47829179875125 103.11561593621457 134.50271277145075 117.99966129265034 83.96381594865545 206.00145603443124 228.6537139187632 74.37878462493545 208.75098004502627 164.54327675127206 179.73488968695838 147.38041948406564 130.17786004300189 65.5645756039711 121.54721730331538 29.063196869439246 149.92477270883418 116.29870232938387 129.1612462388955 182.9196183724676 146.96347437241192 73.77693746891056 255.0066225284452 112.64877036786397 147.23873319927304 68.69412536267662 85.0724589815196 146.23884677355812 166.9433062024183 132.56084684393903 213.27306066187418 88.26213763317675 91.10868904112917 399.5671912950986 161.0562415435713 194.49057006093844 133.99749098992697 262.4013812761102 176.03793094958408 89.09264729261112 243.28273382880332 92.16260086079878 87.50067788488745 66.40791434586143 108.06898256608662 186.7828934841922 116.70649066224914 138.11415673935673 95.75180158176268 50.64726741381718 93.80826101925646 330.55302143197116 97.97965936088043 125.9234237545929 137.71319689424618 555.6220266556692 110.44631393343404 202.66634098615944 156.8358712078637 134.9082884737877 284.65247033498565 134.51034625561812 136.26544354085712 129.10760429193172 253.95007947909104 137.8781296128158 74.54141032748234 162.83844987312366 86.27240879272196 178.62219235926534 116.5833107174686 141.48118957253513 185.1479929920823 142.42809060904585 101.21351498223413 150.00393415053443 151.99353193038692 202.0782339248374 193.12948328796446 162.7654188200471 123.05326601567468 144.7783978535327 148.04269636581185 244.08408967631777 143.09995817896703 103.4213663131314 310.63899737400254 127.84272086792868 151.52439050321064 191.85760061575775 196.25706493826124 67.32534413804893 71.78562875389325 136.64295758931434 153.16749465906622 66.67764131786942 62.60944740122947 113.20072760216112 141.9942357458397 103.07575897867116 138.83075704137022 136.4715852439479 67.46972823210909 140.56034187718438 92.75385220947828 138.57022081810487 120.68674794744787 76.0665685245365 545.5731037138202 96.42915119522094 96.69392948929494 131.33653129352933 65.96722992465386 180.89140147412422 149.01292310971763 94.49571681616875 238.58328426081786 90.49732271952065 98.2773872380277 683.5348954786967 137.24322573360362 151.6105472863096 152.98505795636933 116.86075200684303 141.75247711822416 104.56549587559634 200.11935857557748 254.15559387831235 129.18716749123 131.5082196246679 110.76350806990322 113.63263411458222 136.61267074688956 90.53168293416432 176.48318958587495 81.996663803764 106.8457405299617 215.10534618005173 84.61505535841975 86.33770367929525 171.0971433279342 120.76100411278762 107.18667357799879 210.37591704102974 81.36997306974028 217.5440449041735 144.40895201315922 301.41513206341 126.7590423001625 131.77850985778454 326.86178990000576 76.5879921375602 483.7099814741475 107.57122170792515 95.10412868598245 60.80551357973338 152.86211014073862 136.03933540576625 84.57569825647647 120.7578831870645 170.15445636905366 54.190790070696295 95.5876661911299 190.06747941596018 86.34929214624617 198.91906360909624 253.1041823418463 135.28002773273465 119.73057706401305 544.4913209899148 135.07042867980226 126.4029145848246 113.83665677809307 51.96296429976855 221.6362181217513 314.8527198725816 239.82156348059985 88.5515030976932 89.4364196997108 141.58513149960973 119.34064434231725 104.50505999740639 387.63427861391193 98.08804760213727 122.65499700602284 187.75046525529828 87.18522378796251 166.43465442280382 113.72593983341098 144.12704083530795 110.67960887470443
conv7_param_0 396.03693483542037 577.5285978724314 714.2874514736807 598.3942883245221 378.895044593431 1860.1071166866238 365.3089449586506 314.07061931806334 642.8216948273027 701.970881655733 597.1166535337551 1032.8577050966746 527.806373650832 788.7772488408494 642.9008302740293 602.7323809971701 1190.4207549486298 355.8585471972946 461.9981151088886 453.30364902272584 581.7863580562437 356.7053151225052 655.2931847653944 426.9690940796015 311.3812797970175 548.2402933013675 775.0409105930244 625.6330032084626 709.4947647988834 654.0731585388185 524.54707901682 1649.3466684857651 460.08437957030276 777.8493161074321 492.7502273588984 632.8807331437945 530.6448682952105 842.1310202038507 658.536213819174 387.65776365246853 518.52584328944 533.6356513221104 1043.3985455047616 1149.1820223967657 446.42131384536737 1659.9752231507687 339.979554058014 606.5464609286563 338.4903588444498 508.1806188243657 576.965762004034 496.10649015787953 409.4916034967829 411.15652247576185 149.99312104775092 709.4380689438404 594.5878443193061 500.8092396640097 690.8628202743162 558.4514092455313 400.18376656549566 833.5191400856186 730.7072768633009 736.9764211146721 570.5361380748446 1058.5858749860656 653.4481135641366 627.6973551622995 1425.43872741828 322.76369109546334 343.094091986522 1037.1666563633416 499.0943578755983 661.4096133813747 390.74502327463034 578.6591025963266 529.6964036091938 396.641030433316 633.5893311574426 426.0900277696593 381.0815895241243 786.832071388168 798.7195604825254 710.2811128948368 542.0282208951032 688.816665711641 481.82301904955625 442.01249650837735 696.8212045973644 374.26741147536217 887.4491659181731 587.1562289814199 781.1271252421768 624.1435593226421 663.4299937049536 571.4620594202615 719.8122190010325 604.7877581585749 806.5261657938663 707.3673385645669 944.7625439385088 959.7600548548489 462.83337408030144 487.696483271949 1074.3089914744912 531.1867619294783 928.9135770094692 433.7922097408625 414.1947903212027 817.7576620652665 395.7331143221728 642.4221936042145 953.133323857349 508.41895461365783 1092.7616590392104 401.6336417441369 663.9010486002953 621.6435070367575 427.0167133640677 1467.40681771871 818.2602917801322 737.3845636463793 448.27334850786036 543.8879747821755 934.1597096121113 368.1697235357319 480.19560965017405 780.3985056477724 434.3802637383786 361.82295114148286 1024.3271837391255 456.93838523904964 820.1084077889857 444.32724507929964 570.5509573074157 828.3106818497898 519.0349107595524 639.3762333075542 491.2046308236142 397.5811257481097 808.32228847045 310.1279882859975 553.4587775499594 829.2768571564515 856.4702842548642 399.4964698470792 619.5196758398596 1156.4928779519548 574.6323473183174 776.2805181575753 690.4084427427216 716.3244741383339 1083.769370230397 531.5265174977642 919.9684214355406 837.7950027155415 626.5702329164225 1150.1213269888917 490.8632786213757 607.8292640223117 564.8083053900037 598.9263186802916 406.98662374795214 567.0831368329792 2027.8235374383542 623.8061478549611 695.6937957423127 488.08486928873765 775.5751643069062 452.49332092822544 413.43594502969785 482.30797989012456 630.1544984398496 413.9425243890131 576.4324028051047 361.9089603068242 683.529797271487 482.0818742559056 569.1289243270095 574.7637171079629 338.6455936829365 981.710838952014 477.94208320388685 643.6512566824646 1122.7466197693336 939.6460724185031 620.6258456955553 755.1456906330869 548.5899686634986 441.5641049898541 386.55836678993427 521.750915562104 650.6042375102883 541.3416953481582 317.5731315489852 558.9276218851755 401.03444477779703 398.17383495448166 693.3173213861977 899.3242455725604 937.2119719263922 905.1457070120543 440.0810290268367 1163.1765055104959 467.84868685697626 475.78965100899836 565.2709806507959 1101.3795475076402 1292.7451485041588 688.6059067322683 452.17801290784263 688.1323786105385 844.1270394087524 700.9861981113205 476.10859810607354 461.2698449672986 1166.1755021238703 1122.8867023280184 361.26842390068174 1226.1346423495827 641.2910754279218 419.69196392870043 473.6783685345304 837.5552525065015 521.1429650406384 521.8290858773252 416.33387582083884 500.18179735315493 696.9259343029821 486.935082793226 556.4758270524212 726.0529647002238 751.7024541562816 964.222651629177 477.81196820397105 458.4466955392327 630.4499830197403 632.8604785512122 326.803760432876 0.0 1143.5454979874837 862.9374338836482 542.3201448151021 894.283397414636 983.7822923646521 643.2124699584655 693.2661138048512 947.4636323494689 325.975327106464 580.6522765332109 669.6515782587509 737.5635594093071 291.5305722044971 654.8933341130025 878.7963870759125 492.605377282284 646.6579534370957 553.4055903743508 596.7817052102776 445.3155497463118 420.16469570245005 849.8244555622861 467.0551800563853 549.8865091815762 338.75930585634325 627.0575477406337 296.733970032146 1352.1618775364957 785.7062270727286 933.6498797228855 572.1128471529973 606.4815026475312 398.5269551506559 534.9233193740786 676.0230225327372 291.75715367361704 396.1340526824908 869.7423903638369 674.3333515575061 358.61471024449753 649.1426600708626 468.99644638368994 853.2770672218471 511.35928581272657 419.1240186922414 444.0745255969936 825.5405088796578 478.84632072987944 518.0810348070283 1047.2532114793735 1343.94080547427 457.3149855575011 320.7613632685615 769.5525215662858 1766.6474330386409 410.502100524835 594.3627296333502 719.6304933001985 485.7956848514032 621.1946297307657 450.1106222680821 390.6620253803956 556.8111342029817 441.29267316988205 395.3609719018453 660.7186350109583 758.6486403150375 575.8546581499965 522.1499987563227 470.63986175285703 557.8740347953471 463.8288660161864 536.5348975148918 688.9780360822338 523.7338846529192 357.34692836362035 569.2822767374937 748.8412385452976 510.1564528538878 622.1680102597405 522.6506976637227 442.13242020028804 838.8810289224494 848.7472857307457 303.2151397920463 266.09030783309953 939.2556759566679 741.7571263621243 779.6411462450268 535.1069298988682 1027.4601640678754 849.4427159121625 684.5839457404521 690.7183105120675 1024.5784515794135 683.1874595544033 425.7805225632322 416.33070317803157 845.8482055007557 493.6389030856335 519.3414768976978 547.9238211521564 559.0369103747054 530.37534253719 573.019393771677 613.9337301065341 458.74626426069074 612.3698456110981 563.392521804556 382.2745549032031 464.68094843304505 632.1781730070348 415.6565170207582 485.8114686911676 792.5309684809299 635.7686858684224 424.0919890903178 397.54993255553194 365.31558408225345 378.05875338576436 322.6419936964846 576.9991199618765 499.1634596676697 369.2772757551145 743.7434112175346 825.869770959139 447.3039051064435 1039.586797331441 754.0157692754807 350.8114982908549 480.3584296765791 462.4019201763923 828.3907883937774 678.4484163680798 455.1040148865789 607.5933200581613 587.605248884489 540.2569533119196 575.9754548207522 694.9295950906619 704.9667905298435 656.5904507470439 375.87844487312134 723.1572119755178 1036.3784705875844 804.6779082176355 509.41889721553815 572.7492990851415 401.7913257876294 406.95172211471396 688.194055474113 714.08020416593 517.5001087179269 733.532342268387 508.15856087602293 506.5638133082497 876.8683839220841 678.9559214523629 481.26695045226353 713.7190209212799 461.915135517388 835.4982484861615 658.714913748163 584.8711289753332 424.7841011966766 513.8198374444081 429.6978092274135 656.6935047115236 623.6981856692989 489.6645926019894 512.3219604509175 617.8774253435405 261.0760390398601 822.3969949618831 422.0029983968212 1060.3326733333508 494.1655457698379 387.8752588049666 758.3461583327112 599.0375370795159 702.6508300567573 672.5544910482058 619.1191901816425 941.3918025111143 486.16945556692235 1497.8759407171358 645.7319170530808 812.9186147194405 489.6155900743934 546.0619166018326 1789.856459523069 632.4822708024911 687.3541451939712 496.939861175848 405.6538599018167 294.06761160806553 513.4085457193243 1223.9647413971563 752.5646686842017 1391.5266211441103 622.4497772521979 914.605924059006 350.4696063072167 685.3378389809928 490.6524128353105 382.56907853954107 793.1316842346337 566.9467307299194 781.4029204144609 1292.9662710647028 488.41380194051465 606.018608699869 491.46148098369036 663.644740739541 658.6052697690136 778.0970849109985 689.3997487275409 687.5138881371139 464.5359237559034 439.7520521666087 505.53410286651945 424.0372137453953 556.1056156397087 519.4360214885014 561.8042629442731 888.400957945764 637.8601444887921 441.946715163744 708.8088813248535 420.40983906403994 512.7064976515361 402.5481030967412 423.39615508886584 765.0402170916693 613.2119572373225 558.8576938108015 630.3798974892424 513.9954746003668 145.5512117800285 614.4019340612062 1020.4130150756146 372.2132448609677 1075.2740980564556 494.0489579313029 902.8677233072817 787.6350621674223 465.68909451097437 550.9597599801358 455.0715014548383 457.3479676227722 733.57628531683 1713.520690134921 693.4264164986628 890.8212831517093 691.2239389134675 387.5906660547311 487.33986746920715 611.1708458589586 374.2363182718614 554.4268062613064 1239.8238648935305 993.6572438488001 569.0408809784899 410.24597779360454 482.49703679733625 1270.1905791303705 629.5391084146421 288.4043946107916 287.1278498013377 682.4718403942546 641.7298046181547 1063.8434227125292
conv8/dw_param_0 458.37622792805837 306.7684491179048 300.7232652856143 243.31623855493862 159.60248576731695 48.67431442228352 143.38140280113402 246.71482286480352 447.04816437945163 133.40355037573207 117.3843856265135 325.97929187879214 180.6932957027911 110.72452878428919 233.70058577976755 117.86801278571166 76.21653600877953 335.90275733601715 696.3704514898163 142.78857751120535 105.40173646449797 353.9678152242747 127.56449432298703 191.36476896054316 286.10633866565706 227.19026847652043 198.7901548463059 101.2044192953834 213.62964789965903 216.02905306722917 272.33098128453895 59.103662857103544 172.3051280332327 170.43120893409747 159.04940235540502 122.68980193836289 185.81091801321838 72.1052270869556 80.31327139727632 131.7810446029897 160.84412238308263 103.45745205560067 265.3130184223704 51.78887605425908 97.7818870695352 31.73952308423278 129.47699412776478 106.33309731552534 310.5714415648777 311.5298342245786 220.30447274527475 113.29213234854673 242.94118508238222 268.2052303197753 410.6764039874059 145.03967984222737 116.82014368609508 391.8656232519599 81.34833851282995 169.99361514621225 118.57221564262586 178.0429235316851 220.47138247256248 155.00537988607027 115.61529605229245 270.2367049256696 166.40438149762554 82.14270774887099 31.141318223645058 154.94991991817867 367.9560312261739 297.12328466449935 190.08184119493825 217.5247895532879 254.63024613864144 131.61546434724684 237.64634043920552 265.1096203258971 165.10682876279822 221.86342346713786 411.97224266362156 100.87821266333775 112.00998902981463 118.37538110624173 228.7466020920476 135.51681136081186 328.93927123506 111.35895733167455 101.98345333396385 298.18076722364134 353.81801766361417 633.0378795092523 101.10569311546665 459.917786625082 235.53018971248977 109.5560221540355 185.29602853551964 167.04049632052613 143.4906786562654 139.3874071802844 74.08324501922327 82.15471783812713 215.89732206864818 695.361180168641 138.32349162313463 289.06318711992486 71.67637134511993 106.86906299683281 340.9351489924666 296.662247493426 1166.8770631610626 198.81109625135798 67.8937283298034 178.17604144489152 312.0518297089961 172.46021249604706 146.79826030772907 219.5065760085713 229.35681168406185 36.39244930436266 107.77125310776516 126.7227498735869 195.6104361116321 125.59584796364045 198.46633888041364 139.88199265882716 307.4041119053198 86.38577132891379 291.860321690552 281.44253319970346 196.6698888297434 192.0852178939547 159.81751380744294 151.93333692718375 204.10480880091686 268.1558981974697 202.65930512236562 351.92423155444516 265.76619243961267 102.98453830083324 141.39559171192204 142.5728947978214 223.08835903600405 187.12511041551363 516.5266907883039 182.22055710557967 208.11307752376757 144.46679877266988 202.36704543295988 81.33935131500066 182.0208837729218 77.52863431250462 223.87009164703463 185.50468422508868 121.93628955406258 141.84957466226862 92.80128781160877 60.87587952194965 222.05491858966215 135.13059796647045 373.7194695469189 108.63264869530069 190.44402650030418 116.29780094278058 60.31152866944457 116.72714188481744 134.5535822170299 350.70701346070916 85.34982273952436 274.54194328387996 153.64104319840646 216.33441562825885 115.72712184306847 436.8273949629794 183.84249869735123 409.7916644468964 102.72365756248638 78.65828907533542 200.5622948918565 176.7283198667595 148.83572091224627 94.72699537387597 95.04455808540058 198.98869110346632 118.92372495197186 214.0786539499889 157.82016924860287 277.0171056603783 287.98618989622554 312.5125166333907 122.49037947240592 383.30617025366365 216.89173331161743 247.62250019059448 204.46401666798454 157.1423348151933 452.42270213617104 328.06947655084804 295.371658061101 242.2260895821155 375.97292551384237 108.40557799377989 103.41793280082506 96.61233617962594 200.40757022332673 512.9368735909445 168.99235130887183 43.02173375428156 31.604140959115963 288.2500260759491 149.20474551868924 209.397332376256 81.15406977652094 298.7089442219123 157.4368870402058 173.26703054774643 123.91741577921586 63.775958520699156 328.72744462431893 108.87970859755163 132.7297915032882 351.6897019122275 263.2956756284177 71.51667427356269 302.28718387502 189.76104198954684 198.9003089307248 275.2190197249174 120.57841427102655 99.8628270313754 304.3361568174193 298.9040077313315 158.42210012481456 138.42377921957862 131.968674210914 326.1901621515534 142.85501677587652 208.02751535622517 295.50850234490775 0.0 72.49382397489782 248.32059610748414 259.66920361424997 175.23477433008696 237.18315734166873 142.60213148282412 87.37944125881789 236.5922416589189 257.42193226550734 102.27353236940088 335.161681478759 134.52703425198092 128.54709652882258 140.15620143438161 266.19908188017666 106.83420096060739 226.70907579435985 176.43283089833244 301.4267729459147 252.05405417554724 97.36657419756558 104.18877166566864 258.1686224836602 102.98725614492318 377.6732674355412 112.58855519945452 278.2426006457006 57.13138188616488 109.8563221614701 213.01059551312485 514.3476681131419 204.9201886025595 236.63946015224312 307.0366666123887 181.67615051338043 343.9499142508833 283.9844214882807 557.0289383855752 80.65080777367423 366.9235023549368 334.2270181579609 418.7587373637717 251.72140819904965 79.44344610885632 280.08111404302775 577.7073819403746 147.27683703919362 150.9493751173809 178.82316400477745 106.26746383066842 74.10931638979261 319.5923102185459 280.5903655090994 174.5742318822531 35.52779690306995 244.9247757784646 141.4907820099599 134.75275798984933 172.72393768857046 273.0345969426548 159.66406667878613 118.50646552683075 148.69466908156073 99.94452019363858 661.5625045748724 121.33723928688292 181.78706994203768 166.78878905927712 133.5053685826042 219.3218194958156 127.86241428857416 110.6003948734144 131.03369585859252 114.28866460693443 134.6433111222357 281.9809318365066 234.1884972655193 96.22968959910453 316.3561722934031 97.82545204248753 185.9156864828963 517.122971116972 443.90041010715703 66.10647742861688 502.06448140738803 755.942534775132 329.79709916566554 185.8704214815207 362.6385602065503 141.06383352571459 130.36364488480103 106.74351414999816 291.928700942439 252.207884387412 54.64789727672861 100.51389594401921 148.44866713258057 426.31206701404585 74.52600151073231 314.7393314922509 343.77219622690706 204.4017013246115 200.5638618465845 381.48318610815994 376.9122497791903 187.66143502655277 145.39765849538887 290.03095047090244 349.2665059972371 643.8460436917737 364.18786786482923 147.12771969157063 347.7514359167867 128.480551388357 121.86880602676518 97.34885123036935 178.5046464517837 496.861293288242 188.1962216368385 154.07027772987274 111.24949677598292 329.7758649896391 179.03229016200916 757.5799300057564 169.52276958331353 320.28180745600326 81.70292007586573 61.102897576860315 112.88959465939044 123.09024572683396 335.00496201116204 107.71141173357776 129.7398599140116 305.2939886839393 548.0783283802922 307.8944971412515 348.6146804181466 174.99645458105448 184.16124964098302 471.8173587165154 269.5214022963832 166.15965253109042 401.9277139706384 275.85322301740723 89.4855051306492 123.78954110222149 351.3840778653024 220.26149830914895 399.1862358258589 179.16321621345273 172.23527783656266 91.14778062005628 129.27798955282643 173.0665660560038 117.9037810217928 201.15435951925886 77.57626484392061 111.54072268454105 401.9372672649333 374.3109374899811 173.60801389185835 177.51113363098108 294.7625312259958 152.17240373537237 208.75871114542022 267.21622621019947 153.08851258365524 191.87731415796713 77.21739150603284 230.4333091332405 90.66834337560113 266.2383481401701 263.5698812788698 241.93905293529198 180.27557721303953 226.1064247373074 452.0993864520395 235.89269533078462 183.70049744775454 239.3726193691376 274.3095156482569 184.56070250484507 202.32363650831496 56.01990176788569 101.61752133165051 40.592136880836996 299.08681478486926 260.87997745177097 336.2646677599273 129.20166756784764 51.297918206899645 266.89190453297755 272.6263454623563 202.08526783211923 327.5268243920743 150.48797607737856 100.6687495511568 95.37246993137607 229.64992067848644 25.307146278498394 241.86476432531038 152.7314330476076 98.3081213696305 393.55417430387325 508.79926279610345 227.39755315976734 178.56707391323695 143.37215043916882 222.78039295887686 105.20785101898288 102.71707126827987 500.6854959907331 188.79108960492303 164.7401499689842 552.6681342533115 132.36228803740994 183.70596167888135 114.14378076574619 148.18458484378178 189.11762846659502 168.6944671121205 581.066678884111 75.68029234590297 184.54005018864478 175.08729332887953 158.99173502163885 373.6600258195896 257.4003658705565 150.04760368566562 356.9764555747686 369.37880803186283 506.0077239149258 578.2573849584871 169.38526792237317 93.23422824853378 224.14660092336717 103.92638481355594 157.6769141921079 649.6410724853582 544.4313573833441 208.133670899529 127.96682085660096 112.08697843309326 135.94899455663324 248.8834831200809 546.4713551913949 240.8995249521385 117.22921695168864 104.4601169173205 525.7635728027793 88.24801979943776 62.681441795307336 124.4397647244614 158.59181669589347 124.00167701766479 828.369210433214 336.9040594784794 110.06438191600192 226.7002715883824 299.43460503300736 45.3002909312948 43.162527543958106 279.1313837994505 152.00140394170901 128.05522651198558 36.02962770568041 253.40896672796814 339.8653737136054 693.0001027771959 128.45652371422534 347.96789729433607 87.62625129308682
conv8_param_0 97.43036619202563 718.3885286102417 439.2394960191915 517.4635986391819 657.8780346528112 403.83501512126054 413.14414347597494 665.5360777438249 357.94613957505385 907.6856150667604 380.26436779968105 528.3568286138567 459.8058820965203 418.7340897198998 1410.9351494590476 619.9747486243051 501.13698788814804 372.93861015281914 646.9012566976105 421.41374063345177 455.79713441439804 448.96406012143086 610.1506377682878 478.223294164569 343.56768038740296 559.7861043968902 611.2247139778468 380.1619527494037 630.0995713712327 303.3279319950709 1129.9988992792812 434.8444368978483 743.1623375100265 533.4501106604577 548.2962664268687 281.4550804621994 603.3504814478499 398.14745893293366 296.58271569813127 757.6214810838325 769.9537998398991 368.76342989626215 1191.1204200130492 555.4931416083494 485.9524056817967 561.2981107780003 739.0274958881379 795.1092113181908 597.3220479699431 901.3029056218319 182.72460037529308 530.3998665727365 558.1722780293122 505.3433445104467 1121.4172077048452 455.9401679571772 775.7107667360995 427.7348124437592 409.4358925481432 458.09457398107213 1010.6991539031122 336.11863293974744 384.9014445186394 507.14472384354895 1188.5885258209507 288.5340372854672 374.8308093564398 1084.046996681334 341.7554152078375 359.5382919274389 504.63008774691883 442.71572186682226 1193.617486020434 560.0223966228966 249.24842964137088 455.24724591951673 597.1871111731768 1315.800250860911 724.183369731592 409.2300195347349 912.6269253041938 1091.3056232326983 804.564951894094 492.65338538930007 441.8927753227677 506.6946973312701 302.1095685866548 789.3594913690578 323.3547375302143 497.9801521374203 537.8029796143704 662.9558422554433 599.0247798066256 623.5374300938647 611.1333322577511 490.11282129843966 524.8174664400601 442.7235868917478 552.97486368693 497.33951634945913 598.9094837636205 355.0672599378788 458.3157880245868 470.32632849348465 501.479977400872 295.5357183526891 473.46696051883663 625.2344844519719 408.72917817235094 594.3273752939969 268.115001572294 539.4774632052137 732.9433448062855 404.35960701306647 482.90809928743676 288.66624081062037 368.29241780036045 471.98536665922006 273.84536388280117 258.046558448998 439.7369412277987 740.0192157129358 384.3977995561046 661.8055405818634 518.997709738004 318.17962915840866 510.1876022655834 270.44667636355604 573.3504084877239 594.4971393730539 259.9095548707034 642.6679891787066 526.5743029574952 501.2007026715255 362.7037171358732 440.60056320273685 282.45699486920614 488.031152175611 578.3644734308939 526.7364691532416 514.9806186770003 687.1024554156277 594.0457270524672 899.2071588608586 492.4411498548185 430.5341990465516 452.29602788616194 960.9074958518231 804.1966779006141 524.8984656983571 1269.1150273856292 395.2784949075142 726.443521973853 820.2236397078354 513.2446831298148 370.04498324581976 1131.6166559904646 556.0708564762407 310.49201505897025 415.467146030889 331.9308476112992 360.26103535973283 507.7336830847772 463.3947991284107 549.9126579152006 325.252635142123 1400.6912104623896 612.5263024445495 873.840210800447 635.3068098187359 217.3735526752057 309.366752837154 639.9490228845584 377.35211120935344 804.2057080051761 400.6391238050505 1119.310413989158 583.5159053612741 208.2103067259729 136.03180531096393 706.489142035405 564.6572039323418 430.8691707234311 506.7118684536488 287.4888012001444 340.5889246992562 405.0606347724124 984.3482458077434 588.7011230447805 1624.855425422749 399.6581021258701 846.2056316766771 569.201598659053 656.9834636894935 680.9233173427996 414.33767611655907 497.8715295781342 812.1199133911622 426.7916314880615 545.5818348196896 389.2107517707099 393.746210663843 472.60858813296215 777.2567744834962 584.5391900287084 717.5861306616098 382.22895152674505 506.3267921204126 398.3058419571606 461.3607344159951 573.0946836597903 888.4983890881034 268.49773056024713 388.825295119552 412.58026808438785 881.2310115287185 334.35598722869753 554.6205514185021 472.963804404852 605.2482572037413 601.5571160269512 331.995962834078 513.2399852173263 362.1305168353556 804.0270406907509 286.3647387650361 368.94455060829694 833.4969680842272 230.11781711547803 489.9910386665624 870.8115262941824 692.9954258764726 569.3463564428239 508.11163350827167 425.5839841727258 472.22663973429326 730.9465430701669 542.0227744527353 458.67111322503456 661.8457298700976 314.3520187580853 528.3037388962051 496.0856411614567 330.8272187982951 228.7175541561537 192.05543784667807 553.4085010296674 376.17199095756376 1174.1607073543323 512.5995262432206 867.0100388244922 512.4757738855093 272.2933945760526 599.2669238535051 570.6329353193792 1110.066485915198 576.6621242290801 689.1711339179158 717.8712948286014 360.9143234634255 415.3768776900382 493.4122775156059 407.3920842046897 517.8887164853431 387.73031724567636 528.6665729194237 424.72322051135666 789.9820596346228 524.4602498322992 252.2036452768272 1030.0623153912743 372.89572899433614 823.7351259031866 458.7749091124798 425.8017946291422 590.9886449919709 395.0275717548445 295.1847340065516 1313.9835387165158 569.6608412090237 375.8480447431926 523.9659362921118 370.8493536742032 566.515009830629 526.9284118214908 180.16536673523365 331.5566593406046 632.3033046554218 387.67271657101634 586.4860829711388 777.2486229614134 543.1673420442424 540.2749333612425 613.5433908514729 652.8414140483345 593.8015774557294 347.01564627539915 405.1882330132425 464.4981501444808 453.4989265961621 448.60113001582425 340.97244015797315 393.0397897399345 361.16569907480704 352.9994478135787 284.37094073285454 613.6038185181543 978.8712840060784 535.4090009100191 466.47270288009406 367.48352878671216 417.8585362797171 707.2624994170338 595.3803968934521 377.25319567389784 852.3592851356622 312.95872921543247 442.7567518538448 779.4528379778625 317.56766468342107 505.59306205117537 354.5055961285517 435.2311765688763 445.5704761255498 627.0056039541814 859.8852482221562 632.6747231221321 358.5443168238592 335.8291930627453 389.3663367530779 291.22124854907486 542.7879330100783 573.5821958814839 426.6708702841967 423.6989584935556 511.2976552296747 430.5743072375954 601.46737101585 409.1697044805839 321.06995550285524 674.9952681254349 359.8802742560802 324.2495836181941 91.19944226703657 476.11466224049184 1283.0780966879258 352.7092050749449 478.44181892669883 330.8563204049705 1063.2572037834666 858.334085603732 320.5178621566754 541.930373971397 441.3421242459151 521.1954539428206 660.1277642495593 732.6714020632648 361.88126943564646 640.14787380259 717.8566019479133 473.23950128654036 354.13413111748787 726.207256103167 521.4770730483598 353.5992948945657 118.96967513621141 470.9199325813195 594.679448314859 189.15359035192654 389.42373010222457 511.24904228073444 388.4887259843602 414.2834581199614 518.264829195927 535.8750788849019 397.8805844589885 390.83440095412686 245.64963069081213 477.3950383284973 852.9907257004766 563.6200534600221 311.47532201059806 320.83434325000127 513.9332069750176 637.846300670265 356.23498062465075 448.89685558256235 376.1605019601086 171.7884245734025 347.1455978692001 341.46390601028827 583.2478012107413 405.98022712493054 490.73394571057634 455.0495854548592 463.2652813539385 333.7307691885998 257.150633310121 492.1204681031512 442.8473943590179 511.5742347628133 482.8188067407257 413.3619535876652 471.4349143771948 659.9531517375831 590.4760990507018 946.5061213755948 338.8630971456035 580.8482403271081 203.0679621347585 416.91724255873356 695.2792670792526 330.02283016297645 354.2786591856072 386.44570002694246 464.50614994083327 409.6318922467781 272.0320365367274 514.7338233601289 105.50960992709376 387.99918201198466 400.5600025115997 390.86730969009363 423.41887241790187 752.5382884088015 505.54141953571093 414.82236050674095 384.7769903801528 695.2289602268371 503.0508731000337 341.53057103732687 313.56157933781566 336.82808587944163 383.2829681809719 369.8568420358295 340.9562078141576 446.40274825879465 453.4172349527092 688.6730662399386 408.2053162896745 286.3413982266158 609.7596396113055 458.06690031082326 477.31333284423073 631.4530762166037 515.4138206902575 1354.5031520296786 405.48985050949176 702.9799045748983 632.2957052941733 414.9451532850326 341.25436538643413 581.3346844201438 543.6893414360416 694.3706132893342 530.6483704316408 343.1946696505576 404.1814992722877 254.96138519945669 618.1342471724477 469.48441635718694 408.9259535731206 476.1563174435889 330.32385065258416 816.6865543123954 423.71484099157766 665.4631187067437 483.62330109868657 657.0665804848237 572.9880737653697 385.62519016963694 579.0749523661535 1036.7917418937936 638.3576793534892 561.3821472874769 422.5169780142912 708.071492839301 504.729125414398 326.8724454969418 528.7133725592955 428.1478871024832 315.0850069632142 309.28812082159465 407.7774372891217 1219.5481595435708 630.7901400518926 408.38123567965124 936.333587224119 460.2726183010684 425.8551968787369 413.8861586315361 458.47239275948465 800.007446238222 593.0717344776843 719.5922757286095 378.3916975354711 374.9378270599874 405.2642216033689 464.076121583787 187.1572441984899 432.9839042321422 1173.5176588208874 332.3096129938952 420.0790003226438 461.7902466041766 219.9779281459913 522.6659863631859 433.8174696161225 1102.881516813367 201.87782974645256 616.5191690890658 353.2224939402226
conv9/dw_param_0 222.69244903784337 156.28475088071733 158.93803367384524 402.3184044017545 130.718450656986 809.986380013883 336.7206948432678 247.95036678669072 142.8697202666661 108.3585407346938 337.2920238520953 357.8597795844358 138.56950888192947 307.46967550336876 59.89157967464638 198.49660557575626 147.39155246340368 168.0400581935626 222.36958324745024 276.1677171709971 380.70722885926114 136.2701147308144 230.95451357703203 169.60398992838557 213.12541643202303 131.33318790796486 90.84282341729657 279.1378015203512 173.63379067815822 275.4045174373433 148.66920855567884 306.07692107686694 188.2428262401244 189.40462945225542 353.71828176140116 323.126027035165 418.9002602808375 296.1970594881368 247.26370204877674 147.6255705256915 130.50777225430411 454.1959239731994 89.14627903374712 108.35185122090357 192.8388928997544 225.39158398172754 140.70379632316937 90.49452460299453 253.82559076486007 122.56698521216272 524.4577002647264 285.94758882506187 631.5071633034005 244.56726256633124 150.89265422613943 175.7925642453178 451.1835527183002 128.62985273323878 182.14823061484736 103.16073785922289 71.34275424053997 261.1718033854294 394.6062856237495 340.3554452154303 71.30207264296278 349.3571307121653 1028.0060144949039 68.61741848570281 466.2310999952955 173.4905590951909 202.8296330467276 333.4542445489113 30.6724398875544 69.29968571140871 275.0966950279524 294.61877901093317 228.1141802934867 62.8349253904235 108.19901123657584 256.51058200771564 207.36126189559755 140.08576402362286 108.61749729973648 240.77057561249015 229.17576373853842 314.4655458924307 213.63348197160238 163.9446210945546 344.47559573105053 290.47862053405123 114.74857723934078 214.14300713683915 197.26662734986553 105.48439115931882 362.9417032078604 88.91516366399976 103.66166476034607 231.22923704566176 206.114784509757 133.94749578283862 353.49220476306374 83.39937569060557 174.99593716952748 177.31048689294414 168.59279538781766 254.26863286003137 177.53438438282055 210.59703362218391 286.4942680141954 154.65150219887977 166.22318244310284 199.28174165001082 636.8717761023009 352.1521771448853 260.72191400412134 379.3595066329404 421.761921488227 182.18325731770486 497.4753167697846 45.915299059897485 74.1935512985904 408.6166577666991 183.21116271710957 195.34786447389726 370.69331410078695 286.27714962494 297.00849657518467 471.75708270038103 215.26944839984571 149.6985159538005 185.61934289365456 323.28178374779213 384.6297026489402 488.81942378579834 400.62880350135015 297.14808457768163 264.51938603928573 169.34750516596952 131.87143814507385 388.0026794265692 245.63974705880523 143.0008539622533 203.38067273774644 102.9098388502571 190.51614205216927 302.25307188741414 556.1181343567908 133.5403357093752 412.4500482919534 99.40744032142466 99.5086013243613 339.79223124109586 111.88974962335064 354.7770935273648 304.53951197787 285.6630907159575 100.20486898160048 162.58756268037993 264.59934059614335 134.27948387475715 97.61882764480617 234.69685534480354 154.41812885246958 99.11048904624711 136.76058760083873 103.49094904998636 66.95101143891985 332.60708516359426 147.13170225969776 221.07228835533485 348.4389480207421 377.2757402444804 310.1543746635195 260.0062895779429 328.95587771221426 318.84526376969825 52.31284672163669 404.79256690090307 383.98890441756214 197.63928411885445 224.63394508392938 181.88059477258977 239.73540546068958 207.82876529875819 111.45411490781511 160.41092778548742 127.97489880872048 121.40733116414846 527.0205249103141 60.76558046226077 749.9485001955203 246.87304342667602 229.22993219410478 68.15661252774062 195.25647708966733 146.5046961877746 520.2871403974995 106.33962478850172 125.27626204561108 218.96435342612358 266.8518604053501 229.99071512572706 102.94611557508618 398.50269372382127 222.23139927134355 335.98559872336267 208.89157915655193 273.9954845598153 520.2319445670328 218.6281713148228 149.83203855974625 41.59233474343812 213.80821740759097 445.87229470883204 163.30310688070625 118.68814495785517 256.598143194627 336.4629167490109 90.55442977571282 161.7189067176102 219.88156255269473 126.9554447139218 215.27412455672527 245.329596041578 111.45399830792554 311.29936917032256 443.41505184259034 129.3610222276621 373.83667560594535 178.82988785879908 193.09960608959298 251.78729585845596 429.78756108952746 244.83305589041368 474.4023831595344 528.0494754619876 132.30390924054979 318.4619935881824 365.4933015968477 174.67040310072434 333.2122800716841 75.39114258829144 144.51535020771772 188.26729333293514 457.9308949183192 300.33233962866 163.7570687703831 425.44135029050204 78.03312840009094 295.3092077789979 64.07930351507918 248.897845306023 251.51166019268376 218.92304734783548 113.17855173323024 95.53686886087682 302.45904007623415 222.33667997357472 134.6219840378626 526.3320371454867 225.3147181449021 526.6910603626994 529.0439278692855 208.44648717319848 298.8771740138254 204.29900416641377 96.85624462012393 65.8560313056751 367.52270179340775 280.29850075550263 258.1282604161865 240.15152166136068 120.6118183715014 448.3503666468904 264.40773095245066 103.26780434903142 124.66307849648835 280.8297695264045 52.03546616476498 623.2841220114403 459.4838713712135 230.67929330739756 450.6800012437182 141.76803925819084 289.2908379721625 161.7800068851395 492.9608475930317 142.342227841874 374.9478228957157 206.07188557188766 242.61730665655526 453.36986438947605 223.68818169468352 193.16460562791136 310.9272771355902 190.88097768893257 310.46582001225715 539.1970846447916 498.0651865710979 293.96224886029097 190.44423076476173 423.04292005352795 244.9192858498416 441.33531378168766 410.5887194717456 368.20398442616073 186.69145761454303 176.79504109121882 88.25776508170995 328.6902230110229 363.7936720546623 156.69043272005814 198.47364123932056 280.4919081547441 265.34136673367533 160.2564842118469 193.78995713204827 484.84390801623846 139.5161332926055 127.64319106175667 136.13124886035865 113.70117923994671 236.51269341267462 231.0386332252438 177.3717273799702 121.74534495591138 333.3323058212595 290.95967543489513 227.39667948701802 182.01049724243012 485.13054040879075 144.66695617623583 104.9412844770505 229.40454503220127 221.16524700742227 170.98966032088052 583.2813306942901 106.10933506345425 134.88235176074207 177.2034287890872 142.22128810033195 495.05893592971097 291.58636654815035 245.80983372497968 190.81174691849407 79.87667950642832 228.67889231614623 162.69759634822998 307.8008480930042 35.114284844135696 120.64727671601221 281.8698618964875 393.92354057195 119.11358516889123 351.241119698646 196.97362380730644 134.8245275492497 126.6143432754242 149.98914044451615 327.2632205448247 769.6999976248359 246.45627574426229 148.93764601360405 76.91284087172195 195.26816202873724 761.1703998240243 237.2245107725455 298.35659071037975 547.5304943396279 272.6028015684177 165.52673123953176 117.94974283302614 409.1557186429713 193.96135695527377 157.98311564719162 156.7115109174057 163.83939527782255 218.11492155635742 236.15485070263807 47.80241113494207 424.27553473599846 117.02696450864697 215.39148646667846 463.9462227266116 165.08034942353763 228.65781177914172 228.9128303175204 78.62152104417271 253.40405426234156 478.3277530842192 175.86969949293683 187.40056942089643 155.03978049570958 301.1084652813392 297.98077025006563 155.52007992687578 216.90957391196616 548.3025804330271 216.68190720180675 421.70503378558243 118.16192310486471 189.15421166245338 247.77819923577047 234.40692399900723 206.51146727859086 218.32194084309907 93.67299794629595 283.4977306079828 234.63017662895805 311.79768551609953 129.6758309982179 101.43411862695551 336.33526401536085 614.8772848518569 172.1217859542358 322.54992636038014 406.5025389876959 337.7801854559333 143.12831538676133 1051.9400597901235 138.42751135671284 95.22602210459823 419.3938268769082 158.36757041527008 79.33505280659516 198.64024390528132 369.8935688154987 225.82240536859433 138.0819883227849 331.2012287377715 116.43950268290406 200.79220016020355 334.28614066740926 183.80537237663847 568.8472966519552 93.21126525194089 152.1207984136705 103.31166699249964 209.28188761929533 264.56323351990034 186.74036393007745 95.29418169214084 179.56375855215433 322.6852370775986 82.55555743256595 262.9802110673025 55.86952116133995 117.4174149774727 443.02588908479987 123.72000563929726 127.56735071186522 423.3051419489421 111.23272402882698 317.5959240165933 414.04608923213306 558.6470624710363 364.28285237724316 90.2431560977837 119.09206766613453 196.67137739976062 87.94920879385415 103.82259297933933 592.7253955512765 253.82843313028232 161.35840481109682 299.8822939863627 340.2804070097201 127.6891946394072 168.14604000185926 190.77332415537373 363.08512741724087 89.72864408287134 179.66209866317536 187.6350101020722 128.4833404819953 456.1008158072802 301.3419600759526 103.93161635393948 122.81020344690606 324.6030502265603 147.79297088292353 165.4385258398016 358.58918076074804 363.332195156222 30.591790082518187 64.47765576207657 318.3283935834022 199.96133785903214 265.86629163249296 373.92544047150227 153.22245709341897 170.923285542021 190.87829299223375 129.69085146927233 134.24376494817483 446.5383546723967 271.9280918470188 102.56045773200124 348.5823141021955 348.6707011783126 194.7129504602475 118.46889476700113 518.382691271949 179.64893498443138 139.94732579050591 251.8976121521463 232.50509290136497 158.44798278561228 239.3488221932428 170.3711654209707 64.59735935935815 192.55425672220812
conv9_param_0 221.63508845144977 1048.2720810581923 434.1049415527859 484.07999848235573 245.60882690583725 334.5907101304031 687.842478833864 248.38161708802548 472.4570546437164 438.397476984562 316.8695977796739 371.3034113212782 454.83762919883543 354.95366133671376 406.3132021357742 519.5369344487401 308.97746444928237 223.10253806511304 558.2347218355064 350.0225479419132 679.1289925242489 289.59819774697985 454.4079608059122 416.9823116234227 764.5004177793621 157.1701312296927 609.9742183825355 378.1630920361209 633.9774000994687 595.5811023276495 396.7995101430137 518.8838957257656 459.7198692584545 262.6134926996085 348.2682028102464 369.0316463555832 597.8537242355761 652.2080389517655 959.6940230660075 396.8036852889021 467.7330954905173 764.9921491333457 390.46980062313344 507.93763258915345 185.96928369617177 320.1374650228676 658.9089416846318 263.30322419119955 338.2618679041147 96.31763831147603 461.85666207853296 258.6253210503164 441.32800076554344 717.3112144807753 357.1700676394955 322.22079460372913 523.3277823717518 718.2130890712833 586.6990094063067 426.71697026458395 601.6572086262028 454.1916155461943 315.93990087076344 570.4586170094921 418.78882047335946 445.1940793356981 245.1415006498698 519.848945385894 255.26049316389256 782.0765753319947 294.179406233514 654.1274751130221 262.73495971129944 404.8510982980325 411.6402301909484 407.7337000061523 174.19521774377364 471.12651943205844 270.94272154383606 590.5387376874174 329.6403828749035 418.87250799427375 293.2672987716105 319.9218796581154 220.12899125292864 597.7939268281905 378.61980587686105 431.3909693846355 301.4342781673864 763.0137760688275 1467.8805610267073 573.091369563741 335.17483592889727 313.95358372285176 214.65529296928716 303.7742243066549 487.08457819716153 791.2764998329308 317.72623286114685 479.4895853610181 279.30121451158584 398.8091785167776 488.96188727198665 283.6694243373306 358.1460726292897 358.9856595711881 209.24197538283988 506.57916895304595 389.25227634800365 521.3522824875698 376.2371860432265 728.80319636718 302.14951811076503 162.84218341918947 354.03174628493764 97.71801949328038 357.3783652978889 361.0438522840822 326.9338101813329 269.70303477971333 321.81138650341586 584.0037484447148 441.94066518019184 262.44176549722135 336.3417943394606 1005.6751929559998 688.7129675271216 337.77900740005987 442.57672722695474 373.54888992832343 400.34633169477496 68.28979348385225 358.9695416771191 177.8060345385114 820.309374317237 516.4219996271119 520.2037477652999 479.406729943874 363.0209776150802 364.88226165012014 362.2065432932154 460.7865856513432 397.1369085612129 413.01304717594195 446.96006026296453 477.1803538989226 650.8182148828362 326.62090819714524 301.46485727931014 581.7143258084548 199.8828710737328 0.0 356.96323861028185 341.22668468856574 375.59389726541076 384.7060239704333 407.95872903059785 483.4087375633002 358.8731669219211 233.5762559988915 350.08304847855965 471.01404040712185 321.87874255420667 395.8324363332098 509.96014642491957 615.3583922579501 373.28018371209004 408.74364453701963 430.3663216899265 408.3795919685526 519.2646827787217 135.0955983454564 250.9532392386177 409.6869869734852 834.8023132420984 370.7571721859703 690.9435839473085 576.3696415310579 469.4096359437111 367.0333857775897 390.1756017470409 221.37467282736174 344.94519003092466 515.1845782149054 331.94586994497604 779.9411584911642 816.0876961276551 538.7374037926675 517.0188222236619 582.6166103338326 398.18577785684863 401.3420406354999 539.6421401063236 416.89750147920194 608.4976168652743 225.23869045032907 354.91215580041927 340.81929018242823 446.981063306987 420.3815546435182 491.0532750978987 388.63388079407144 485.98443814420057 500.4954394261291 754.703554121622 303.08841884823903 344.2824248125616 491.1889475328244 400.0176535159563 516.0414006508564 515.1057084041973 417.7827896833629 423.55973218828564 406.02157737010594 722.0653752364044 297.95081050710075 407.9890771771423 438.8402706149471 290.6925632889158 452.93627152540876 363.8350444132868 238.59621505822338 369.1259132729097 743.5923484588792 482.7515855567379 1007.3566704142409 472.5114320388484 470.2895795978768 86.85001100958237 539.9128917655551 283.10475867541334 321.7111703135183 363.6805362799555 477.05343029308125 449.0685248426963 387.1266262898466 688.6508081166951 389.7067097774717 577.8982278917031 370.06310731884554 319.61287642845275 452.00458176443755 319.72790902450197 481.1023734304582 584.5647289215112 419.8802835400213 380.4464356801149 637.1871241459233 462.2177516939111 349.2986845559775 734.5192341021768 142.08236030849523 635.6041609320297 498.00383779900125 252.83579784304078 202.15440633510738 420.07763378733335 352.25405993194494 416.43860016698926 560.1273649073391 403.85778683871496 502.7899559827093 631.0479518139908 548.9940846819595 298.1648485457423 302.3641624550755 262.82554207064754 192.62691731324458 305.5975415729441 451.7406138540013 365.9545683210745 428.7836657401235 265.4895008795006 143.5631897465454 330.7328600195673 711.993091612737 469.34909470989857 439.29016350298775 327.71936220809 403.4955428998435 967.0310584095072 398.02871712389765 484.6333308541071 353.4744946534386 445.7973380495468 220.892398865342 575.5384685407063 298.5446684219383 471.22112670761027 455.8805150340946 360.32387822114487 368.25374882895676 317.99405294561865 424.2830116655074 197.15245537666073 579.2317046234414 295.1081381706342 491.7166707879478 253.54713621831428 353.78552977218203 334.85523012289275 430.245180049906 225.5010264832466 213.95448919486398 244.63527180587866 608.6558391841688 304.63070761766767 313.43775274032873 311.74513204210734 576.8141764237427 532.983306581481 526.1870770059016 1110.41105957113 203.20308125399774 662.2975526039207 208.39366419448322 366.8541361917119 583.6027306291356 401.2925683692122 358.5906291448295 462.9128621906899 343.7165739786513 431.0796922464056 421.6660184464226 818.2496078120386 394.5231735143119 508.89517321299684 447.97783139815357 253.38431590662898 409.1416551973766 232.70790958767455 525.1721927746092 428.43366356024546 798.7167161060213 466.7228882014006 251.67214141789012 301.5196977085591 699.6002131924002 183.1559314422779 564.0015725926821 749.8664174040841 223.06201465418897 405.2622174815712 128.84807088285487 559.132962608506 472.77768465887976 378.1846379261764 600.2690826858517 387.1266614582387 631.1732907891768 685.6391995097214 322.7220886070677 472.75009662648216 288.07905405113075 328.61342303201917 402.2529328297966 485.01221449962935 518.7838362569569 436.9084584500429 341.9594798418328 171.24436192077616 350.32885992774106 290.5621033539932 656.1799726820909 604.5467932899963 284.8603322923781 535.6266386657816 697.3542403694948 312.02315469291614 462.50806423691665 581.70880698387 257.485035109677 377.8818783512042 253.5720601492485 272.9719139050182 349.7823338374767 312.3789604088315 436.9287514224954 376.1464239143454 324.7909271612014 332.35004354213856 535.6980117485131 232.56823363502605 322.0177975995714 369.49939408317186 258.5525278872638 318.68154929587996 297.38018602849104 450.5390100330106 259.22473970086014 916.9764536762492 402.55483383162107 699.7323777216682 532.0852949606441 298.63515470514335 676.0898952201854 506.04870469545375 214.6604182576159 422.72834681912116 449.47715124279307 491.7149119072098 461.4020460185814 377.0664299073459 295.7050702295687 406.58286178361624 424.8969332413095 1395.99394581916 309.90610514784095 418.7680375626347 223.30790374700666 253.1815957842724 904.3141887070568 864.0948356123038 359.9605276184021 354.9612303441874 284.79451964343787 284.6363852958038 626.1000024756543 703.7835998305203 500.4168598191158 524.7079018882667 155.8006696330151 344.09752786528315 688.3771508389319 436.31019355715927 624.3415346222883 773.0039101755261 350.4587978182702 376.11186412494635 599.0180435121041 507.94738027173804 447.23344163429147 792.1125913996543 405.84509495483707 385.61587312991935 380.5735757134527 1073.4745879954799 565.9900388232081 441.816218942116 735.8043091750103 779.6604742020689 449.67445963568184 562.423763262729 555.5723341874707 293.576799855823 237.75734496358666 582.3999899412141 422.9098323708543 295.3513091819298 274.78236611057804 511.33642953282344 520.8350329007272 287.95851744855497 99.49674291225018 626.264521231448 317.830452650834 283.60151837561125 433.59923662995897 436.4370100416874 75.09184359910839 359.88559297378157 367.2021787688605 395.87729828819397 314.68622332183116 391.82930365686326 402.9667873495628 623.4255022744926 370.157162485596 349.8563654061126 385.978627677756 343.4885889975651 683.5010733102971 602.8896660348798 1497.704189905675 493.8987639239648 278.78725255121884 289.0008473191173 179.51480278622444 362.4224230060916 795.9686652958504 252.45139457440263 492.8923121338076 99.42900159808293 406.177035234946 448.071284063025 453.961693222788 391.15472576248277 410.45240012891253 552.5066590309459 429.9077511990298 387.5577075358711 460.9437868558405 247.8371377485052 358.06527231078366 285.07721318498534 411.22341675506004 396.0702101896454 347.5981479324441 252.45124501914736 597.8213918938587 318.16022089424 446.4280015760179 623.525843198224 382.4476724332202 327.0755359996144 843.8315157862492 438.5154468333783 342.6323307450924 289.5147170782459 473.5664571848385 311.7241292942404 446.3938167509366
