conv0_param_0 27.1343312808
conv1/dw_param_0 23.2944376545
conv1_param_0 21.9425684997
conv2/dw_param_0 19.6928318641
conv2_param_0 48.8967015262
conv3/dw_param_0 21.4390361661
conv3_param_0 48.847920493
conv4/dw_param_0 90.5430318409
conv4_param_0 72.4383360454
conv5/dw_param_0 21.3218941238
conv5_param_0 117.769221662
conv6/dw_param_0 37.6473632119
conv6_param_0 119.587535769
conv7/dw_param_0 27.8276505212
conv7_param_0 145.55121178
conv8/dw_param_0 25.3071462785
conv8_param_0 91.199442267
conv9/dw_param_0 30.5917900825
conv9_param_0 68.2897934839
conv10/dw_param_0 32.4263879234
conv10_param_0 83.7429915813
conv11/dw_param_0 22.3105033013
conv11_param_0 140.123323673
conv12/dw_param_0 6.2146890293
conv12_param_0 133.902477286
conv13/dw_param_0 2.69677908927
conv13_param_0 139.46880996
conv14_1_param_0 217.114642238
conv14_2_param_0 135.036341695
conv15_1_param_0 363.399615913
conv15_2_param_0 157.428430349
conv16_1_param_0 283.463748659
conv16_2_param_0 140.088296847
conv17_1_param_0 181.295474825
conv17_2_param_0 98.4925936862
conv11_mbox_loc_param_0 78.3555422285
conv11_mbox_conf_param_0 23.8404454112
conv13_mbox_loc_param_0 137.15521692
conv13_mbox_conf_param_0 20.8723271414
conv14_2_mbox_loc_param_0 148.255007027
conv14_2_mbox_conf_param_0 21.0791147728
conv15_2_mbox_loc_param_0 156.434490254
conv15_2_mbox_conf_param_0 22.8982352066
conv16_2_mbox_loc_param_0 163.664553431
conv16_2_mbox_conf_param_0 28.246942679
conv17_2_mbox_loc_param_0 262.461097438
conv17_2_mbox_conf_param_0 41.0664206634
conv0 127.095312945
conv1/dw 12.140776972
conv1 7.76015873635
conv2/dw 2.02617835862
conv2 12.3205223948
conv3/dw 4.29138853666
conv3 4.29568987974
conv4/dw 2.79332714486
conv4 14.2210516904
conv5/dw 8.13096429686
conv5 12.5346368594
conv6/dw 8.09510843096
conv6 14.0726697724
conv7/dw 9.74790887268
conv7 13.4629400577
conv8/dw 12.1800664203
conv8 12.3694918201
conv9/dw 10.1867335105
conv9 16.1458264094
conv10/dw 7.85919393521
conv10 16.1673664897
conv11/dw 10.6122063349
conv11 15.6469623075
conv12/dw 16.1302412944
conv12 17.8686558459
conv13/dw 15.0689909917
conv13 11.0592240356
conv14_1 4.3709879716
conv14_2 22.1144931651
conv15_1 35.7168776319
conv15_2 47.9024274817
conv16_1 31.814706644
conv16_2 57.7670853072
conv17_1 33.3671660529
conv17_2 41.0827503928
conv11_mbox_loc 16.1302412944
conv11_mbox_conf 16.1302412944
conv13_mbox_loc 4.3709879716
conv13_mbox_conf 4.3709879716
conv14_2_mbox_loc 35.7168776319
conv14_2_mbox_conf 35.7168776319
conv15_2_mbox_loc 31.814706644
conv15_2_mbox_conf 31.814706644
conv16_2_mbox_loc 33.3671660529
conv16_2_mbox_conf 33.3671660529
conv17_2_mbox_loc 19.7726278117
conv17_2_mbox_conf 19.7726278117
