conv0_param_0 27.1343312808
conv1/dw_param_0 42.0692211632 0.0 0.0 0.0 0.0 35.9848012764 96.1156195192 0.0 0.0 0.0 48.4883970918 35.0773802664 35.616372028 0.0 52.9423933239 75.9592155109 37.7726240618 0.0 23.2944376545 41.6536292719 74.3933222113 114.592146447 0.0 0.0 58.0522076501 32.9069171499 0.0 36.6667798773 76.1828265041 0.0 0.0 23.9832301819
conv1_param_0 21.9425684997
conv2/dw_param_0 439.582352019 60.1903177809 83.5455824137 485.688658713 369.882588542 995.153124305 77.8068358651 19.6928318641 453.722631443 76.3074740343 401.455922319 94.9558540172 244.565129115 226.900283553 375.830874324 169.798768467 1268.03337185 266.88035468 28.2426533799 508.968930642 344.379247572 101.716269226 460.506391676 253.092457162 323.43685604 305.57692073 578.445728594 285.327643314 273.306720032 177.767286663 227.428791371 1689.76751353 384.924773421 437.611881516 243.390031491 815.49939121 127.469458722 384.258701791 568.598796478 157.370072552 412.198746248 290.022364064 325.136818448 598.472275976 1249.16147102 58.5879827878 211.275352024 181.551999661 236.323400615 181.688265081 403.467272942 643.552886888 0.0 743.266941544 838.123976835 398.56262593 359.096407159 292.135653255 178.228101 243.217917551 1868.04198282 364.398669103 1672.42842986 152.041134256
conv2_param_0 48.8967015262
conv3/dw_param_0 90.7487428865 158.827164186 184.419010637 88.5382417398 146.600961122 61.9662543041 133.294707283 273.198226082 50.8878838242 134.834680537 73.5164158794 66.0389580016 35.7180623451 50.9010276974 100.852361619 29.3345510433 63.9758564908 60.0805080325 71.942765241 0.0 39.9078974882 161.254909511 46.8225342748 48.8302597734 76.5497452924 58.7551574888 27.6938772476 120.540718676 94.1268018091 86.3947663265 174.211326114 106.035850331 78.8629625898 57.7724314813 146.408275908 68.2018463833 180.58225265 165.416652912 138.58176602 114.143242668 80.5543824559 844.641941795 63.9430410183 51.3494705191 32.8523032622 118.223447245 48.2422029768 45.2621759495 165.308221435 34.3885520538 123.689266472 114.433388175 47.3565878289 46.3519337445 59.147351105 66.4885582109 45.3753841148 30.0839307932 50.01534779 46.3844375512 169.616195221 37.062877529 21.4390361661 57.248873404 95.3132023439 147.612080752 0.0 44.6650663008 70.2968006623 93.0362948306 67.9547822519 272.188919771 103.369757167 355.344952151 50.3477053501 29.6558703498 64.8689148319 55.9398926919 269.855140521 26.8444898496 34.8501963264 64.5462419854 299.275499282 121.354336506 55.9980059756 26.4303379421 107.300200348 161.128904095 141.035821614 0.0 87.3951895424 141.262757549 62.2690942588 130.152183709 103.399223162 27.818276998 51.5523791108 44.1466239486 435.174330531 73.4645747491 55.226277292 35.2203908769 100.928529819 63.924658955 48.5495389277 66.2052118604 58.7548334508 609.566442849 142.469012699 247.755553553 127.705059561 47.180248154 215.255225432 267.435105512 98.9023635584 74.9387581229 118.474744277 73.441663464 586.954935498 186.197421103 23.0140634329 165.289255091 86.5059782608 110.259159317 120.133658906 0.0 186.124781583 90.5023197866
conv3_param_0 48.847920493
conv4/dw_param_0 124.404221475 153.723402458 361.835854519 179.101876777 194.303295887 434.322754422 200.878787313 130.181741398 179.557751108 203.983660678 456.707974746 221.216705024 624.089994988 227.533563903 257.139507748 363.191423479 135.770982247 217.946431799 184.475373776 181.882659704 243.254542557 182.079851349 684.475910902 250.0273627 330.007776928 197.707724895 373.215584379 251.284004908 937.051843346 309.254452858 162.714071376 146.562550867 0.0 197.34091464 265.392610606 1187.31056649 322.137587728 183.70149524 312.897972029 338.754458609 380.420012635 278.549496084 485.757641706 390.986659297 213.662959657 251.102739448 386.700433115 139.411447695 183.660135562 483.971693181 304.78019145 175.626654155 247.287578093 498.610422089 516.429666149 713.421976592 503.875940996 349.502486099 167.925501105 675.036647644 151.738837077 326.868960413 256.467186545 258.453109619 138.937153999 302.694677998 132.668188628 130.556552195 307.551869108 171.586583801 244.244776385 183.083773097 253.093659695 360.724967808 280.9784768 475.680138165 323.010936132 315.280287724 512.451924136 208.911097894 158.846583008 739.048515456 259.058658548 344.232087368 142.47004153 981.122726193 203.15001535 414.250555602 306.579464662 287.823403645 282.496204072 1962.527627 347.420889427 437.515957518 262.15206324 448.16986611 787.225908806 269.397174215 422.743443697 428.623530993 227.842857661 90.5430318409 236.984460753 228.907223184 235.588888845 252.819777668 349.415367227 403.012785645 311.879927103 452.534405265 356.430978906 139.257116277 189.569368416 187.502073015 127.359733286 2092.69562424 143.445352952 356.600722203 242.849422187 193.134402448 228.664191974 237.521299544 228.885953006 267.597584784 535.24178772 415.476381613 205.409842058 290.89200747
conv4_param_0 72.4383360454
conv5/dw_param_0 150.73549972 99.0492855522 122.309771882 96.8177879917 83.8853336187 176.809799882 183.809653588 98.0307519429 496.667297668 70.2906644633 64.3895483691 131.093563988 67.3746660763 279.062197206 196.639160339 219.525754094 339.586468539 104.717159447 109.887426558 287.293220092 70.3194206228 110.161918039 126.254612958 101.372182895 185.238969634 67.0542533265 200.157426765 131.034550042 125.991703861 111.702465415 121.600769221 178.356165984 184.113191553 199.736344696 379.672250483 79.859878214 67.0570684867 198.403449921 92.6676616367 191.460840998 45.1201409755 54.3573684001 488.917512772 431.204969477 167.57576648 53.9828963891 123.124302065 329.254521615 180.881742307 51.6050343227 188.794552327 188.377082623 331.126827393 291.458731295 82.0075896146 131.748907017 645.867170983 114.61809819 225.243547828 139.826703348 54.7090640991 107.636235783 63.5870620252 200.644999357 110.040621584 75.4406052282 40.7863019388 150.160349232 91.7823623495 181.060642513 153.78845436 159.881564189 164.57798638 158.518039138 609.109668854 41.8941393133 88.3430714273 151.210395 51.8899211262 417.257049306 222.880762238 21.3218941238 81.3881806093 252.758265865 582.073671695 179.299855993 187.970956559 109.679323273 67.912901417 548.498916269 247.1580944 149.407485933 157.742576471 135.813993714 92.7315852827 194.1120847 49.9655101837 93.2135977435 61.4415142105 123.617935808 204.363942241 152.5774084 78.7569557407 495.571958485 67.5440990278 291.292773303 52.8017487296 340.045532162 59.2730655457 80.6007673373 143.769802751 154.933920559 210.471197627 52.2675217709 219.382700315 116.690383946 143.440032055 212.190160131 62.7447465311 294.965865837 106.945618465 134.93732004 71.9728261262 195.156952355 137.887373529 77.771375986 77.2288217803 69.5118140692 295.140288453 73.3169256052 117.448002778 650.727976477 151.274829831 136.490643273 77.0373949312 135.079188612 459.773586306 605.854820341 72.3203627283 154.657496558 79.1142745009 75.7865289825 81.5115272644 71.3257119796 150.390850007 90.1280202334 127.431767632 107.324089262 224.733242225 69.4777737989 51.1124727203 269.158122245 80.8133833568 203.995065914 76.6974679005 150.20039338 195.095589133 108.931075421 171.180209709 165.760235354 292.129945676 58.2452408367 474.058820094 104.827028889 201.340543156 88.2639657513 726.266849684 74.7992860406 316.046913104 142.670909752 287.461553904 150.644188579 140.5892691 112.575111418 732.098878233 96.3388817887 177.989529833 153.115355368 71.1708666826 72.6368955043 267.056351766 102.414972661 292.281582626 112.67943841 242.417651347 51.4400225199 108.706672152 67.3247867839 87.7705704728 142.938517236 155.780541872 129.803074338 155.576232854 413.029299559 226.416275059 105.540705987 72.2757148565 194.026337309 134.872345265 172.131171846 61.7563058948 244.365899757 243.727128931 107.698944071 155.482016658 66.5058912175 70.8705429558 171.936336219 124.876948021 151.033369506 158.79692054 110.666858495 71.8973934464 150.087006246 86.1379289379 189.534344156 118.88870183 37.5441831695 155.954493367 177.233910958 151.785036507 101.804662541 143.245882055 138.323500603 143.416358368 151.943553928 45.7707623603 63.0256513952 150.103828393 51.3406213808 60.0459002135 153.97308041 80.3742747872 206.983768041 121.108267292 98.7863705171 108.741346421 172.387572566 67.0975028606 85.7590923401 113.259612766 106.167694723 469.302213128 138.238648352 125.426643677 242.23539748 201.44095336 112.174171368 156.586588183 60.745830996 96.2169052235 212.932875629 431.016993735 131.667842345 259.584404515 82.6767021272
conv5_param_0 117.769221662
conv6/dw_param_0 591.711353925 452.804450038 218.75276823 476.561971937 176.402156294 393.542507616 82.2430833725 426.349515503 290.273909601 272.694453807 301.645323535 324.733556365 437.309560338 234.371032633 112.357033897 708.178749201 290.82464884 189.410724542 164.949063276 126.306224358 249.328520197 347.961305487 0.0 150.032167498 675.668127037 574.336500953 277.15424855 165.05092511 352.674293602 209.489215571 217.379717871 690.020409412 146.615104069 140.841324717 141.446954897 321.036406717 459.28385217 506.765015933 552.516723843 133.079331769 1258.77157127 576.725222402 117.539602512 321.366103015 258.391380205 197.463777596 231.187840123 303.895342907 183.133152536 643.567514089 371.328097716 445.184591524 222.813707305 256.761006138 296.227285319 167.666134274 370.801272906 334.776022209 351.885174832 246.053300802 383.739354111 213.764630072 221.574817646 173.688510361 191.357447574 443.763304736 304.384132845 343.102351501 590.030484355 302.113166824 239.288987158 134.84081573 330.700828791 300.650534846 214.796035313 265.978999619 399.846838499 287.654781823 380.643093556 333.213478599 144.745734949 279.638597307 179.411381554 112.191335593 198.598474468 232.631307077 556.71285969 218.324759533 133.104704366 542.659127904 207.590300778 173.290197458 410.716737191 183.692784724 453.855858226 125.155492734 299.646988309 162.043747649 276.626833968 276.47909048 702.919897081 237.017808597 147.657202922 244.24693225 70.4588296085 131.982358385 289.897632308 143.587579601 375.497489407 250.070352334 248.233140626 228.934892626 254.85695059 547.334605015 615.946891761 429.079969294 521.374033599 338.61620892 111.675405488 263.644385667 230.893622048 400.511287478 157.715125906 187.032797485 170.01565716 379.923243861 188.828651034 104.202743194 228.543249751 400.414344438 187.216593313 188.182425915 134.213762882 685.868291603 61.8972374748 223.179514682 166.980030402 110.547797627 334.329965121 345.373598216 92.0435282886 762.890429043 239.241027843 234.157947944 147.097278457 308.999039738 331.710762228 249.348565469 319.687852844 519.017400014 245.864605135 162.551207214 154.186105911 99.6423712484 490.016055239 197.956910243 445.912138811 358.594219981 282.995545626 241.98263118 224.458074704 476.642034233 237.805188952 130.356084002 293.918920723 241.187129269 222.26876946 396.855789631 346.521972374 608.918580355 192.910004454 212.5212969 58.0132616277 205.583160583 544.913282851 454.598274657 466.254769485 226.624969301 157.532742602 323.0241335 305.153855325 227.842199837 274.290376301 282.387160548 246.693656425 420.371311811 293.286009087 215.244091943 302.336489408 362.400817292 429.885719987 627.363203097 290.038767504 37.6473632119 230.35590534 283.806241121 157.692796532 202.067578584 120.348936417 151.479717263 262.404128108 345.219714097 175.465724089 166.366740932 254.365646857 160.372026452 281.923511459 255.85094191 321.054401733 228.612890565 277.203286827 386.210797556 681.019676461 216.619630923 379.886902909 334.943584176 250.792462948 194.255130145 444.905811884 259.740964667 561.608945863 238.622508439 247.775836516 478.047652728 246.760795969 160.645265608 358.055283892 391.216670073 177.408737189 254.023438232 413.503061528 242.794381117 441.263748057 190.827400643 271.375024454 502.325238048 373.428330045 169.000165771 300.71227284 420.875045308 215.268078216 562.001902392 249.688424427 271.776032837 234.448114633 395.307755816 791.99172736 300.431431883 618.515952856 708.464022085 97.8132190446 473.092027301 157.698538767 561.587186563 0.0 410.7069995
conv6_param_0 119.587535769
conv7/dw_param_0 120.819441738 283.288593716 136.337804477 90.3037621721 510.296655168 123.679731817 107.016575138 233.075616603 279.942531218 96.8933746814 82.3781639255 85.6063084351 167.002043882 113.329094848 276.306492444 75.4995645864 512.086567292 119.285177432 622.102841695 100.143539988 189.954051888 151.600418165 93.0095801281 184.955742699 414.89958222 100.499606672 169.865437195 164.178448883 94.9064782707 117.639606381 134.798401302 88.1224742774 140.571905773 123.845980171 168.14249716 148.344569691 131.575338804 482.941920896 70.747664856 101.561848057 179.55313609 166.063652683 124.848572095 192.076750418 156.733182772 83.2080653041 125.114367234 121.293129434 133.460345792 178.323341498 115.590746953 147.314155979 128.465314229 98.4789006114 81.3544325527 91.4565508223 121.549588682 113.632064464 351.432413378 74.0537841484 65.68687454 70.9914501323 167.921266151 171.867297584 112.721023002 187.5235422 27.8276505212 190.460505241 58.5513717143 155.635211508 161.846795877 103.797840396 70.2655139996 115.296769211 224.13759379 116.945211276 81.3324709606 136.801215727 107.956449506 710.586803292 120.381315692 147.577166064 181.162955361 96.0418729943 171.781513472 71.1175556596 252.276834717 117.62877361 274.277577029 117.007710613 206.806214126 90.0862178354 144.844082991 83.5932141362 69.7780970859 51.0465439963 160.057117089 208.503927626 148.567360351 124.865502439 120.11419535 580.039714647 89.9262491342 180.541857122 118.328955614 351.814958472 120.78707288 93.8405611091 137.559838511 121.069359175 83.3678862253 93.9652764799 108.673494336 147.00191253 130.481262459 131.403224072 169.764797706 121.453531781 109.231224687 158.681378777 88.5891967491 262.396517909 546.719964539 494.282991295 195.393222928 75.756452292 231.532488125 98.7995811545 233.866753099 55.7518051316 140.728079325 140.313808346 52.3830473266 109.471601743 186.99340334 87.6541165099 50.6437811754 89.7536809555 162.641635996 126.759404274 170.261626292 82.4082725635 167.41489398 119.464136646 119.956484983 132.131465792 132.80024123 77.1757572869 104.589732929 134.377965788 175.178399262 117.201656869 587.441179069 243.810014821 104.734197138 137.794704941 90.003732945 170.808133351 364.071687407 73.4384892211 110.726036333 124.054235997 142.09733161 152.278374921 209.606724394 127.116302684 160.369926172 115.724984779 207.628856962 137.296145416 119.028000628 391.334544109 58.7351256989 113.299831383 110.383946191 103.634478548 158.103097422 119.808928867 212.076091163 108.578530675 135.866674429 148.951837327 125.550260021 106.018492053 59.6997674779 210.428170407 344.728623415 270.610310581 109.591860508 227.531158444 138.749961628 236.111488346 118.986563444 132.115276695 123.422636131 137.751151328 213.761799225 175.030696777 59.9099958712 91.3168248395 201.232972717 151.020769741 132.708355413 385.268324013 161.43941301 142.956997696 86.2015067721 90.8785163443 212.613906007 152.371395198 138.47534549 165.040390661 115.089784129 109.174897689 249.104914625 160.494891929 77.4596155496 197.478382082 44.1040261533 68.4029355098 135.350219271 136.774098362 161.540401923 93.0948462653 337.469116292 99.6571076206 166.933496628 82.0802182533 166.99275092 109.455450733 118.53176772 96.4971915946 93.2482073615 82.7919292431 143.344574101 82.0194276172 156.975033994 112.692001161 285.284703018 138.508795935 124.563146491 107.848921463 158.130037759 306.92293466 119.258230931 42.347818455 185.967060006 135.578448825 168.334237297 89.2596441137 164.718626847 553.952432173 240.285932517 147.810338826 112.98064122 73.8721207312 96.6226932178 162.045337421 141.847950401 116.360334434 140.027865639 96.7213364436 203.764981754 126.4749589 115.149991883 167.143030999 119.589374869 115.940256042 167.574606692 147.264204815 123.399019228 66.5079629834 81.1884932243 183.857918219 155.237535736 95.8735414392 114.746476162 112.80771243 153.191666663 75.4416309364 74.9929812244 102.558621314 77.3032964839 88.0271182363 94.4876291956 111.069419663 135.938837852 174.903585131 70.2288983843 171.515616632 98.9333612669 99.7823046753 249.212280338 637.872222518 103.692548895 153.852672593 126.661113972 171.641762723 110.066178569 170.61091061 121.682408673 143.764496558 108.274733539 201.808440638 97.2453649194 260.021250239 93.776395883 77.5055260578 73.5168775361 166.33102608 87.89565847 115.713860748 150.75737412 78.2783312919 126.894247331 113.871833302 206.974418672 64.5445995566 156.980608419 99.818345495 167.152655407 62.4782917988 103.115615936 134.502712771 117.999661293 83.9638159487 206.001456034 228.653713919 74.3787846249 208.750980045 164.543276751 179.734889687 147.380419484 130.177860043 65.564575604 121.547217303 29.0631968694 149.924772709 116.298702329 129.161246239 182.919618372 146.963474372 73.7769374689 255.006622528 112.648770368 147.238733199 68.6941253627 85.0724589815 146.238846774 166.943306202 132.560846844 213.273060662 88.2621376332 91.1086890411 399.567191295 161.056241544 194.490570061 133.99749099 262.401381276 176.03793095 89.0926472926 243.282733829 92.1626008608 87.5006778849 66.4079143459 108.068982566 186.782893484 116.706490662 138.114156739 95.7518015818 50.6472674138 93.8082610193 330.553021432 97.9796593609 125.923423755 137.713196894 555.622026656 110.446313933 202.666340986 156.835871208 134.908288474 284.652470335 134.510346256 136.265443541 129.107604292 253.950079479 137.878129613 74.5414103275 162.838449873 86.2724087927 178.622192359 116.583310717 141.481189573 185.147992992 142.428090609 101.213514982 150.003934151 151.99353193 202.078233925 193.129483288 162.76541882 123.053266016 144.778397854 148.042696366 244.084089676 143.099958179 103.421366313 310.638997374 127.842720868 151.524390503 191.857600616 196.257064938 67.325344138 71.7856287539 136.642957589 153.167494659 66.6776413179 62.6094474012 113.200727602 141.994235746 103.075758979 138.830757041 136.471585244 67.4697282321 140.560341877 92.7538522095 138.570220818 120.686747947 76.0665685245 545.573103714 96.4291511952 96.6939294893 131.336531294 65.9672299247 180.891401474 149.01292311 94.4957168162 238.583284261 90.4973227195 98.277387238 683.534895479 137.243225734 151.610547286 152.985057956 116.860752007 141.752477118 104.565495876 200.119358576 254.155593878 129.187167491 131.508219625 110.76350807 113.632634115 136.612670747 90.5316829342 176.483189586 81.9966638038 106.84574053 215.10534618 84.6150553584 86.3377036793 171.097143328 120.761004113 107.186673578 210.375917041 81.3699730697 217.544044904 144.408952013 301.415132063 126.7590423 131.778509858 326.8617899 76.5879921376 483.709981474 107.571221708 95.104128686 60.8055135797 152.862110141 136.039335406 84.5756982565 120.757883187 170.154456369 54.1907900707 95.5876661911 190.067479416 86.3492921462 198.919063609 253.104182342 135.280027733 119.730577064 544.49132099 135.07042868 126.402914585 113.836656778 51.9629642998 221.636218122 314.852719873 239.821563481 88.5515030977 89.4364196997 141.5851315 119.340644342 104.505059997 387.634278614 98.0880476021 122.654997006 187.750465255 87.185223788 166.434654423 113.725939833 144.127040835 110.679608875
conv7_param_0 145.55121178
conv8/dw_param_0 458.376227928 306.768449118 300.723265286 243.316238555 159.602485767 48.6743144223 143.381402801 246.714822865 447.048164379 133.403550376 117.384385627 325.979291879 180.693295703 110.724528784 233.70058578 117.868012786 76.2165360088 335.902757336 696.37045149 142.788577511 105.401736464 353.967815224 127.564494323 191.364768961 286.106338666 227.190268477 198.790154846 101.204419295 213.6296479 216.029053067 272.330981285 59.1036628571 172.305128033 170.431208934 159.049402355 122.689801938 185.810918013 72.105227087 80.3132713973 131.781044603 160.844122383 103.457452056 265.313018422 51.7888760543 97.7818870695 31.7395230842 129.476994128 106.333097316 310.571441565 311.529834225 220.304472745 113.292132349 242.941185082 268.20523032 410.676403987 145.039679842 116.820143686 391.865623252 81.3483385128 169.993615146 118.572215643 178.042923532 220.471382473 155.005379886 115.615296052 270.236704926 166.404381498 82.1427077489 31.1413182236 154.949919918 367.956031226 297.123284664 190.081841195 217.524789553 254.630246139 131.615464347 237.646340439 265.109620326 165.106828763 221.863423467 411.972242664 100.878212663 112.00998903 118.375381106 228.746602092 135.516811361 328.939271235 111.358957332 101.983453334 298.180767224 353.818017664 633.037879509 101.105693115 459.917786625 235.530189712 109.556022154 185.296028536 167.040496321 143.490678656 139.38740718 74.0832450192 82.1547178381 215.897322069 695.361180169 138.323491623 289.06318712 71.6763713451 106.869062997 340.935148992 296.662247493 1166.87706316 198.811096251 67.8937283298 178.176041445 312.051829709 172.460212496 146.798260308 219.506576009 229.356811684 36.3924493044 107.771253108 126.722749874 195.610436112 125.595847964 198.46633888 139.881992659 307.404111905 86.3857713289 291.860321691 281.4425332 196.66988883 192.085217894 159.817513807 151.933336927 204.104808801 268.155898197 202.659305122 351.924231554 265.76619244 102.984538301 141.395591712 142.572894798 223.088359036 187.125110416 516.526690788 182.220557106 208.113077524 144.466798773 202.367045433 81.339351315 182.020883773 77.5286343125 223.870091647 185.504684225 121.936289554 141.849574662 92.8012878116 60.8758795219 222.05491859 135.130597966 373.719469547 108.632648695 190.4440265 116.297800943 60.3115286694 116.727141885 134.553582217 350.707013461 85.3498227395 274.541943284 153.641043198 216.334415628 115.727121843 436.827394963 183.842498697 409.791664447 102.723657562 78.6582890753 200.562294892 176.728319867 148.835720912 94.7269953739 95.0445580854 198.988691103 118.923724952 214.07865395 157.820169249 277.01710566 287.986189896 312.512516633 122.490379472 383.306170254 216.891733312 247.622500191 204.464016668 157.142334815 452.422702136 328.069476551 295.371658061 242.226089582 375.972925514 108.405577994 103.417932801 96.6123361796 200.407570223 512.936873591 168.992351309 43.0217337543 31.6041409591 288.250026076 149.204745519 209.397332376 81.1540697765 298.708944222 157.43688704 173.267030548 123.917415779 63.7759585207 328.727444624 108.879708598 132.729791503 351.689701912 263.295675628 71.5166742736 302.287183875 189.76104199 198.900308931 275.219019725 120.578414271 99.8628270314 304.336156817 298.904007731 158.422100125 138.42377922 131.968674211 326.190162152 142.855016776 208.027515356 295.508502345 0.0 72.4938239749 248.320596107 259.669203614 175.23477433 237.183157342 142.602131483 87.3794412588 236.592241659 257.421932266 102.273532369 335.161681479 134.527034252 128.547096529 140.156201434 266.19908188 106.834200961 226.709075794 176.432830898 301.426772946 252.054054176 97.3665741976 104.188771666 258.168622484 102.987256145 377.673267436 112.588555199 278.242600646 57.1313818862 109.856322161 213.010595513 514.347668113 204.920188603 236.639460152 307.036666612 181.676150513 343.949914251 283.984421488 557.028938386 80.6508077737 366.923502355 334.227018158 418.758737364 251.721408199 79.4434461089 280.081114043 577.70738194 147.276837039 150.949375117 178.823164005 106.267463831 74.1093163898 319.592310219 280.590365509 174.574231882 35.5277969031 244.924775778 141.49078201 134.75275799 172.723937689 273.034596943 159.664066679 118.506465527 148.694669082 99.9445201936 661.562504575 121.337239287 181.787069942 166.788789059 133.505368583 219.321819496 127.862414289 110.600394873 131.033695859 114.288664607 134.643311122 281.980931837 234.188497266 96.2296895991 316.356172293 97.8254520425 185.915686483 517.122971117 443.900410107 66.1064774286 502.064481407 755.942534775 329.797099166 185.870421482 362.638560207 141.063833526 130.363644885 106.74351415 291.928700942 252.207884387 54.6478972767 100.513895944 148.448667133 426.312067014 74.5260015107 314.739331492 343.772196227 204.401701325 200.563861847 381.483186108 376.912249779 187.661435027 145.397658495 290.030950471 349.266505997 643.846043692 364.187867865 147.127719692 347.751435917 128.480551388 121.868806027 97.3488512304 178.504646452 496.861293288 188.196221637 154.07027773 111.249496776 329.77586499 179.032290162 757.579930006 169.522769583 320.281807456 81.7029200759 61.1028975769 112.889594659 123.090245727 335.004962011 107.711411734 129.739859914 305.293988684 548.07832838 307.894497141 348.614680418 174.996454581 184.161249641 471.817358717 269.521402296 166.159652531 401.927713971 275.853223017 89.4855051306 123.789541102 351.384077865 220.261498309 399.186235826 179.163216213 172.235277837 91.1477806201 129.277989553 173.066566056 117.903781022 201.154359519 77.5762648439 111.540722685 401.937267265 374.31093749 173.608013892 177.511133631 294.762531226 152.172403735 208.758711145 267.21622621 153.088512584 191.877314158 77.217391506 230.433309133 90.6683433756 266.23834814 263.569881279 241.939052935 180.275577213 226.106424737 452.099386452 235.892695331 183.700497448 239.372619369 274.309515648 184.560702505 202.323636508 56.0199017679 101.617521332 40.5921368808 299.086814785 260.879977452 336.26466776 129.201667568 51.2979182069 266.891904533 272.626345462 202.085267832 327.526824392 150.487976077 100.668749551 95.3724699314 229.649920678 25.3071462785 241.864764325 152.731433048 98.3081213696 393.554174304 508.799262796 227.39755316 178.567073913 143.372150439 222.780392959 105.207851019 102.717071268 500.685495991 188.791089605 164.740149969 552.668134253 132.362288037 183.705961679 114.143780766 148.184584844 189.117628467 168.694467112 581.066678884 75.6802923459 184.540050189 175.087293329 158.991735022 373.66002582 257.400365871 150.047603686 356.976455575 369.378808032 506.007723915 578.257384958 169.385267922 93.2342282485 224.146600923 103.926384814 157.676914192 649.641072485 544.431357383 208.1336709 127.966820857 112.086978433 135.948994557 248.88348312 546.471355191 240.899524952 117.229216952 104.460116917 525.763572803 88.2480197994 62.6814417953 124.439764724 158.591816696 124.001677018 828.369210433 336.904059478 110.064381916 226.700271588 299.434605033 45.3002909313 43.162527544 279.131383799 152.001403942 128.055226512 36.0296277057 253.408966728 339.865373714 693.000102777 128.456523714 347.967897294 87.6262512931
conv8_param_0 91.199442267
conv9/dw_param_0 222.692449038 156.284750881 158.938033674 402.318404402 130.718450657 809.986380014 336.720694843 247.950366787 142.869720267 108.358540735 337.292023852 357.859779584 138.569508882 307.469675503 59.8915796746 198.496605576 147.391552463 168.040058194 222.369583247 276.167717171 380.707228859 136.270114731 230.954513577 169.603989928 213.125416432 131.333187908 90.8428234173 279.13780152 173.633790678 275.404517437 148.669208556 306.076921077 188.24282624 189.404629452 353.718281761 323.126027035 418.900260281 296.197059488 247.263702049 147.625570526 130.507772254 454.195923973 89.1462790337 108.351851221 192.8388929 225.391583982 140.703796323 90.494524603 253.825590765 122.566985212 524.457700265 285.947588825 631.507163303 244.567262566 150.892654226 175.792564245 451.183552718 128.629852733 182.148230615 103.160737859 71.3427542405 261.171803385 394.606285624 340.355445215 71.302072643 349.357130712 1028.00601449 68.6174184857 466.231099995 173.490559095 202.829633047 333.454244549 30.6724398876 69.2996857114 275.096695028 294.618779011 228.114180293 62.8349253904 108.199011237 256.510582008 207.361261896 140.085764024 108.6174973 240.770575612 229.175763739 314.465545892 213.633481972 163.944621095 344.475595731 290.478620534 114.748577239 214.143007137 197.26662735 105.484391159 362.941703208 88.915163664 103.66166476 231.229237046 206.11478451 133.947495783 353.492204763 83.3993756906 174.99593717 177.310486893 168.592795388 254.26863286 177.534384383 210.597033622 286.494268014 154.651502199 166.223182443 199.28174165 636.871776102 352.152177145 260.721914004 379.359506633 421.761921488 182.183257318 497.47531677 45.9152990599 74.1935512986 408.616657767 183.211162717 195.347864474 370.693314101 286.277149625 297.008496575 471.7570827 215.2694484 149.698515954 185.619342894 323.281783748 384.629702649 488.819423786 400.628803501 297.148084578 264.519386039 169.347505166 131.871438145 388.002679427 245.639747059 143.000853962 203.380672738 102.90983885 190.516142052 302.253071887 556.118134357 133.540335709 412.450048292 99.4074403214 99.5086013244 339.792231241 111.889749623 354.777093527 304.539511978 285.663090716 100.204868982 162.58756268 264.599340596 134.279483875 97.6188276448 234.696855345 154.418128852 99.1104890462 136.760587601 103.49094905 66.9510114389 332.607085164 147.13170226 221.072288355 348.438948021 377.275740244 310.154374664 260.006289578 328.955877712 318.84526377 52.3128467216 404.792566901 383.988904418 197.639284119 224.633945084 181.880594773 239.735405461 207.828765299 111.454114908 160.410927785 127.974898809 121.407331164 527.02052491 60.7655804623 749.948500196 246.873043427 229.229932194 68.1566125277 195.25647709 146.504696188 520.287140397 106.339624789 125.276262046 218.964353426 266.851860405 229.990715126 102.946115575 398.502693724 222.231399271 335.985598723 208.891579157 273.99548456 520.231944567 218.628171315 149.83203856 41.5923347434 213.808217408 445.872294709 163.303106881 118.688144958 256.598143195 336.462916749 90.5544297757 161.718906718 219.881562553 126.955444714 215.274124557 245.329596042 111.453998308 311.29936917 443.415051843 129.361022228 373.836675606 178.829887859 193.09960609 251.787295858 429.78756109 244.83305589 474.40238316 528.049475462 132.303909241 318.461993588 365.493301597 174.670403101 333.212280072 75.3911425883 144.515350208 188.267293333 457.930894918 300.332339629 163.75706877 425.441350291 78.0331284001 295.309207779 64.0793035151 248.897845306 251.511660193 218.923047348 113.178551733 95.5368688609 302.459040076 222.336679974 134.621984038 526.332037145 225.314718145 526.691060363 529.043927869 208.446487173 298.877174014 204.299004166 96.8562446201 65.8560313057 367.522701793 280.298500756 258.128260416 240.151521661 120.611818372 448.350366647 264.407730952 103.267804349 124.663078496 280.829769526 52.0354661648 623.284122011 459.483871371 230.679293307 450.680001244 141.768039258 289.290837972 161.780006885 492.960847593 142.342227842 374.947822896 206.071885572 242.617306657 453.369864389 223.688181695 193.164605628 310.927277136 190.880977689 310.465820012 539.197084645 498.065186571 293.96224886 190.444230765 423.042920054 244.91928585 441.335313782 410.588719472 368.203984426 186.691457615 176.795041091 88.2577650817 328.690223011 363.793672055 156.69043272 198.473641239 280.491908155 265.341366734 160.256484212 193.789957132 484.843908016 139.516133293 127.643191062 136.13124886 113.70117924 236.512693413 231.038633225 177.37172738 121.745344956 333.332305821 290.959675435 227.396679487 182.010497242 485.130540409 144.666956176 104.941284477 229.404545032 221.165247007 170.989660321 583.281330694 106.109335063 134.882351761 177.203428789 142.2212881 495.05893593 291.586366548 245.809833725 190.811746918 79.8766795064 228.678892316 162.697596348 307.800848093 35.1142848441 120.647276716 281.869861896 393.923540572 119.113585169 351.241119699 196.973623807 134.824527549 126.614343275 149.989140445 327.263220545 769.699997625 246.456275744 148.937646014 76.9128408717 195.268162029 761.170399824 237.224510773 298.35659071 547.53049434 272.602801568 165.52673124 117.949742833 409.155718643 193.961356955 157.983115647 156.711510917 163.839395278 218.114921556 236.154850703 47.8024111349 424.275534736 117.026964509 215.391486467 463.946222727 165.080349424 228.657811779 228.912830318 78.6215210442 253.404054262 478.327753084 175.869699493 187.400569421 155.039780496 301.108465281 297.98077025 155.520079927 216.909573912 548.302580433 216.681907202 421.705033786 118.161923105 189.154211662 247.778199236 234.406923999 206.511467279 218.321940843 93.6729979463 283.497730608 234.630176629 311.797685516 129.675830998 101.434118627 336.335264015 614.877284852 172.121785954 322.54992636 406.502538988 337.780185456 143.128315387 1051.94005979 138.427511357 95.2260221046 419.393826877 158.367570415 79.3350528066 198.640243905 369.893568815 225.822405369 138.081988323 331.201228738 116.439502683 200.79220016 334.286140667 183.805372377 568.847296652 93.2112652519 152.120798414 103.311666992 209.281887619 264.56323352 186.74036393 95.2941816921 179.563758552 322.685237078 82.5555574326 262.980211067 55.8695211613 117.417414977 443.025889085 123.720005639 127.567350712 423.305141949 111.232724029 317.595924017 414.046089232 558.647062471 364.282852377 90.2431560978 119.092067666 196.6713774 87.9492087939 103.822592979 592.725395551 253.82843313 161.358404811 299.882293986 340.28040701 127.689194639 168.146040002 190.773324155 363.085127417 89.7286440829 179.662098663 187.635010102 128.483340482 456.100815807 301.341960076 103.931616354 122.810203447 324.603050227 147.792970883 165.43852584 358.589180761 363.332195156 30.5917900825 64.4776557621 318.328393583 199.961337859 265.866291632 373.925440472 153.222457093 170.923285542 190.878292992 129.690851469 134.243764948 446.538354672 271.928091847 102.560457732 348.582314102 348.670701178 194.71295046 118.468894767 518.382691272 179.648934984 139.947325791 251.897612152 232.505092901 158.447982786 239.348822193 170.371165421 64.5973593594 192.554256722
conv9_param_0 68.2897934839
conv10/dw_param_0 83.6302701493 222.000340496 305.299675436 319.036850913 253.964275617 523.264229158 237.636586756 329.531486115 365.353513137 123.510048646 198.330612885 510.809155388 217.019618995 214.275514418 178.495360115 177.588112176 332.922359809 217.688468686 187.521710279 173.89354127 89.0731682846 229.840817565 585.760010667 138.911148507 217.579566311 235.109216933 307.770014867 272.715884267 338.874145382 305.943953425 310.795706811 146.862886158 148.078963719 246.608770088 156.389985992 224.284320966 214.320905635 108.20564892 102.826463602 102.737318149 246.160013808 90.0856846005 186.174188508 250.091661891 262.644860647 355.895310604 337.33880306 159.191036138 223.790828101 309.356219846 453.749975936 259.515953965 180.137492504 315.59033811 314.79855022 334.902441234 250.644717626 390.304395477 490.857907236 112.885061135 344.99523352 105.390746476 397.049804564 92.7959204934 308.417562566 105.072574765 323.054988699 88.4005865861 200.970794571 157.8804173 321.09697862 138.865501669 97.436559283 229.362169275 259.655375098 350.471681613 175.507291475 339.680396896 408.869651052 593.880110553 670.947846613 202.446282537 340.462637906 155.24742147 124.99088878 240.040244895 280.886023132 450.989452251 272.750427903 294.624950912 32.4263879234 151.986701507 267.087886152 403.254992861 165.028809434 313.76426254 387.709010409 436.010649048 179.209734473 247.495569149 132.026986539 329.806032629 198.109309296 222.15407919 225.164546207 301.291721538 444.41672426 204.160526586 215.135296642 159.442852814 137.85767427 96.8413565476 318.795339979 290.044413402 387.880236809 433.29776223 416.868953638 253.901661098 378.126348869 467.462903485 536.226359471 193.85073093 293.138792964 767.33263474 458.786861988 55.8982139805 375.978531509 357.060086025 245.200827929 216.905466781 133.139919466 144.69260686 405.20942372 310.03162249 81.4604009291 155.669858156 151.859139687 621.864037297 80.0159960908 324.250299109 138.534596939 309.38654063 183.082199939 258.383624977 250.730723876 406.166659931 176.05369824 760.668903232 161.46019776 108.536860702 248.590525261 0.0 203.593060486 275.507129616 530.013456013 125.867901189 257.471049337 289.397810976 198.250026332 235.012931022 231.736030325 63.2103971014 147.910679074 284.189129048 97.5193727803 280.277963552 115.926138727 359.429575666 168.547505066 444.829183145 316.403573046 95.6789729802 438.990901273 607.954438508 58.3053988551 243.79397429 176.717956935 140.912859677 277.500881001 123.954210091 202.453322854 301.073619039 257.444746509 171.710537219 704.72954287 131.525429387 195.553812655 287.168443994 114.104952891 116.264180318 338.910771395 162.932724519 201.189953922 117.229410447 212.11930931 120.898717968 270.566634817 218.58021994 250.598789221 530.64166355 116.368303613 208.414007351 270.669850535 136.112934491 97.2234359107 267.725776102 221.359516711 114.395284311 576.953263528 156.51265213 196.850696953 372.421984804 273.222941528 308.402139138 94.622525431 204.743204731 353.405576998 460.297178212 112.295981948 210.548836619 230.037570279 212.100516647 117.215648085 119.320488028 389.275602257 100.312382749 272.011286385 423.446893815 146.434940356 240.670630805 177.909722131 506.822936481 197.567208486 318.595801058 126.587323245 295.770295157 124.003365721 231.379619977 164.494154172 365.195303054 353.995602108 557.16294437 544.446555725 207.203006307 228.384509731 385.024865986 240.069859927 163.6318993 125.229109865 531.579162818 174.114009153 559.946786426 421.836821292 512.858165792 219.274059845 170.490926449 143.587231254 250.486485915 219.584191017 402.551145209 225.236523746 108.272862848 381.195616702 279.543814002 229.8810638 106.39103408 301.333415359 544.010488517 390.280588678 466.146745974 253.341233691 107.266968136 286.960486184 339.62027135 161.61650545 285.053033323 117.653806308 497.44471311 368.428571725 414.238273872 104.27580056 123.970566927 316.305052716 344.507538091 431.322373887 300.21482647 397.875643649 224.055101384 342.077707934 265.703919286 388.767510542 344.971243228 128.38170978 861.503329081 286.669843028 109.836965876 317.939295221 205.429686028 106.923249843 177.806494511 598.163134066 241.222981313 458.027316033 235.374598974 240.523977878 252.002242904 266.841734287 710.738206158 492.322530244 344.251414093 128.673034695 446.421080012 112.025925035 278.598464751 134.099492372 478.251471034 135.951779025 276.891216661 238.405147665 137.246063471 293.882536579 329.440819229 154.02188641 287.921395683 111.08362971 114.636129549 80.2676642576 285.823480153 201.867654536 251.496965096 223.524856011 117.278565999 174.232267176 109.487554981 112.526181759 280.195936941 420.981235204 214.520134295 501.973404701 475.543238382 135.994618696 159.121738479 220.975557628 390.771968454 245.565121583 80.593365091 197.046123376 206.060466142 439.712620696 186.187300871 440.183810222 347.705724709 328.458842067 249.131070118 173.418629615 335.348603162 401.288184861 494.104122616 149.314187089 175.281610648 217.745174839 569.309161837 133.745713051 61.6355281536 157.968896376 630.033475916 584.996862725 133.651357746 475.954386967 207.698439971 247.531739719 238.897064233 525.099585081 143.578919818 405.960231946 139.348235992 122.106361443 334.708076907 223.337091979 142.996669618 434.482791163 291.160242392 181.668575856 196.718206244 468.206452339 481.455246343 213.827120788 265.259526663 455.194484017 146.451225538 65.8517448574 348.636099673 459.883886954 118.208584846 122.769020008 568.128236024 231.590318865 324.71084135 270.733493051 171.248243138 391.792738644 124.191271817 298.98214644 697.469061749 128.522757121 425.247289024 80.0816167786 569.670474551 498.183794357 402.260906766 612.162196204 110.361328123 57.3704697875 349.424707501 103.301899824 253.445017394 198.10827779 205.146253712 455.179265576 583.472961777 158.988697935 554.41815042 512.808731128 293.327151919 45.6576336239 376.638718085 178.309060127 113.207006731 116.310320041 180.775237422 109.92526281 238.019941022 277.711003517 173.833019314 107.114392718 156.941769159 58.4704618996 218.961900724 139.254604319 144.444665054 216.321698746 211.794538745 59.8635393009 169.005031745 183.059203455 117.245408255 89.7641700532 99.850453555 303.727198006 385.364657373 313.202500526 250.853169221 373.942699733 307.225196456 297.234740661 118.169944361 196.339006141 253.060443935 429.382869435 125.283525046 306.143217322 203.083891303 159.809446692 249.612985881 290.66212802 523.998859389 254.929263475 392.751081873 181.215187772 144.759964761 332.202908057 207.794248524 125.127372198 69.4241450237 195.415587453 245.59883332 226.96967604 473.886223835 309.404443913 152.957503183 292.738203642 371.139554897 133.968112705 144.911532752 215.714985348 196.810349272 172.866550866 119.724723983 242.08639187 292.016441242 94.8646290683 392.281110811 303.646559721 338.854366854 208.894405359 159.977249617 541.251245545 387.702590596 94.2987733009 295.037301467 168.35207324 429.701838807 157.095504223 164.803248935 383.214860641 39.7297162762 114.385495188 257.629742428 488.972042367 326.935264957 309.754996996 383.716065016
conv10_param_0 83.7429915813
conv11/dw_param_0 316.137978596 497.317925168 350.254685857 296.433986839 277.107263805 131.632799777 392.433956568 279.055399212 385.233948325 649.195419053 204.054065401 114.061132128 320.497203423 245.2187192 116.654952042 281.19161857 431.89788049 539.27033378 306.957047609 394.717436558 362.639609446 556.51779558 203.111594265 789.934101113 192.201881817 92.6969466787 257.367564513 711.85887149 561.43170106 244.943950229 356.106706341 240.125620922 673.329395399 134.984790231 120.390647855 561.48758898 322.972354093 703.900722779 167.356049608 57.6120283018 99.1865042335 473.829211404 107.762292284 327.848048343 341.933989303 121.093152503 438.402528312 581.655490208 377.841337086 588.1830774 341.270434821 240.95313794 246.472583001 350.891311304 562.004718879 93.317119582 72.3689148072 183.614664586 449.393489772 879.724432841 1059.47583999 99.308678705 865.545763304 263.935844472 143.105398047 195.776186054 382.158681914 239.026775921 498.391974854 106.967169457 299.344033231 559.180725946 410.045523441 258.828445193 477.807628686 758.081136531 337.272349489 466.788327019 868.968683249 256.350395897 435.178241276 81.5693561388 646.813082906 599.330472221 221.530171555 241.926718691 346.095546902 130.795555997 498.097438571 863.373468375 340.386138608 22.3105033013 93.8128125892 387.978940639 119.890540329 487.007926683 487.633588646 1045.16436389 202.715875725 323.251105896 219.398445403 232.446145139 199.815764551 293.277269236 259.766076155 143.613729774 361.123738022 494.591860115 179.718547114 118.639822346 236.810860969 321.261925458 319.845689144 709.224949984 699.656381324 659.916768725 149.873868581 164.962012631 209.011555194 135.811942045 395.413248373 732.63997406 117.503666057 238.244964103 242.917642423 263.556253604 116.279839602 453.515866941 112.475715254 224.712622142 285.164661049 228.021048461 196.641247322 1071.73223324 77.3686598432 119.738234027 253.97017853 224.948960589 117.769065437 229.243028185 339.496054069 267.628995009 350.811180613 466.39847037 106.080649329 193.564842982 157.87624102 328.916979549 277.738225702 457.290203059 76.6327591738 108.545298307 151.56195278 580.768841643 335.946238673 112.530472549 488.817293073 232.783875895 123.451054154 237.204254768 159.849082876 252.064937846 270.404271631 117.758052616 601.127779682 216.513951171 226.836149569 427.146404605 562.616342137 557.455906285 155.633949646 407.296998366 410.710245346 136.569187016 361.666831796 158.460190744 155.963009349 228.606267958 560.760104909 435.695478265 256.507941736 264.108993004 40.8562195224 318.594943571 302.392698885 1055.37229635 86.6188712872 335.570055845 323.188174446 350.081840564 432.796000991 395.704635526 405.339429038 666.120482658 622.096075846 192.314903399 173.946422508 253.568348406 375.353780396 501.205890157 162.524648607 141.171671111 303.053867175 126.524090929 131.416377847 413.111101288 616.220422134 152.854883425 195.337047479 358.096835768 271.195275792 322.645633512 341.964611336 358.899734342 406.880965573 157.451522635 127.277348314 341.594167891 199.745482257 189.8108598 410.57123453 383.077306248 177.878724927 107.853845648 356.52046845 298.280198312 97.1788540692 578.435011026 240.785812586 104.777171146 293.720589535 337.272216021 323.863186874 235.294438181 275.311781802 90.3573373185 262.138227025 281.325200757 192.822837641 214.295060889 608.43336933 357.412235868 221.162193804 244.589076439 480.950230368 99.7972787888 161.606613208 377.107806189 371.526646455 157.018610632 372.940339965 376.588359077 1044.86542936 182.510438363 84.4586899671 290.876817787 293.158676763 667.250374167 332.194672943 482.498894244 599.304764693 305.471777995 500.877875214 201.401481634 956.842063381 141.099798453 208.349078063 182.031520311 954.71649202 250.905424944 675.164507121 163.241914102 197.728475552 403.757036663 245.394808039 343.210369506 149.421630706 217.294323339 288.988990118 249.773453454 505.021444326 923.935328191 76.0718317001 180.020423601 285.335858455 154.94951426 189.041955086 545.894627565 668.933410293 97.6687386354 220.655750832 501.643321774 368.360832437 128.487338394 456.833851443 416.74391939 146.084400836 139.031230025 162.668406718 632.2526926 1057.8014393 41.6340660558 129.143287582 62.4007536683 204.776380677 195.999859074 361.268209511 318.843784675 262.631538875 348.162382693 907.475601898 242.751312074 81.9600825945 161.832290545 182.515097217 71.2721926561 84.1635812442 547.705686263 155.831138854 209.304912929 623.472156787 249.989667234 230.389281995 416.457239624 275.860348046 274.073479821 224.795362353 105.402789705 77.2519837751 547.596982996 331.951222465 355.540565284 52.4766591263 249.530286974 424.330202662 183.904033577 244.693932764 211.919559727 213.66085996 811.21930077 85.7489937694 194.834771066 176.192860767 312.198257237 300.704124519 434.070583979 244.817780609 351.402796156 906.418894482 175.804167933 386.911866638 586.230605812 524.402067773 210.62084892 421.380529181 188.49330301 410.807248556 346.239663196 205.749976728 96.6287840528 345.004422769 303.589126193 323.760090045 198.656763973 134.730365371 447.664926535 104.84396822 222.465378375 354.589016893 331.031937642 143.787635205 194.331224885 472.707934068 149.542042965 523.420312341 120.719309275 125.707337305 68.6016930178 226.325533887 787.510321373 345.253472921 583.296300458 137.584425389 628.116888583 376.411094722 393.721909402 238.786170639 561.086559658 304.717796091 295.604949117 391.860110023 803.985628522 451.587377083 196.62393578 314.945426007 1064.85040695 167.126682537 234.515541684 81.6549454151 575.619203665 243.171007009 381.289548605 206.770711799 795.973422928 382.553623821 373.665759644 533.077282212 262.133147662 111.742183289 275.249702348 329.464149911 964.606243257 226.135509175 1166.71301326 327.637876282 117.095484163 199.995854231 41.5828311806 229.814415955 299.310813471 410.23156286 673.4376116 556.559516027 403.44572931 694.532672388 296.959816609 482.708932512 298.869460212 64.7595428021 247.286630999 307.619139001 308.060875201 133.986848615 390.492056075 378.96671401 194.272717881 183.756025997 438.337140665 344.325376237 257.317135136 767.623385441 979.505891407 232.653761758 544.857127459 439.290389925 253.869775576 251.16552049 272.887064837 27.4311186054 209.635142485 257.570242682 229.855248051 231.849527532 201.687997835 110.289624535 314.295958159 108.009543864 551.816894307 104.284109248 218.874944067 185.330196928 168.868796625 301.61855044 200.015585905 254.188400314 344.262927735 553.548320405 382.547236236 220.832668585 160.034876938 219.102175529 292.922443769 294.244995955 274.948008762 482.67891585 60.525070717 390.800816815 342.744298195 241.30717857 362.050769536 454.358639009 162.314643247 267.593484689 522.815106089 39.2913850796 160.493779727 599.401748393 154.423858911 324.570044547 218.854126107 391.901733333 231.176778364 323.852972684 73.3740107951 271.144578913 112.095528861 209.975954588 381.183648314 870.01007203 861.28428551 336.04505359 403.090057448 205.427032022 150.0380838 290.500877928 273.335469946 268.339935435 156.719164547 99.0455008274 54.6094588926 403.574643421 248.382572588
conv11_param_0 140.123323673
conv12/dw_param_0 98.0880024469 48.9490073584 107.771929045 86.081038021 130.107034161 41.2687412628 173.669016235 147.754845446 133.902906452 155.605034761 274.240245288 172.031525104 33.5656635468 48.1255514986 318.998878035 160.350024526 32.3440022831 97.6511561272 158.279220431 114.821866432 181.290847175 255.238935781 315.628228488 241.440041192 55.0672929748 69.3962564111 336.39885255 77.7288871878 354.281486741 96.8368056376 204.382722014 286.311001582 101.929650718 74.476397656 45.9333971847 120.607763025 337.984246907 314.944541504 206.838254953 55.2919717659 219.778117501 51.9212948942 61.0608791204 167.993620567 143.45831403 152.834128238 220.569224853 108.895155854 47.9409599197 164.476199423 110.663835166 218.454050046 262.867451459 179.683385792 229.874913124 905.980104172 301.944035302 124.690742611 65.1568868025 161.498967848 545.097401809 181.940714336 163.208140727 192.593974765 295.034319185 94.1110449559 1260.32931128 2581.5888267 204.247753013 158.687228692 151.956882516 585.203163856 178.866592804 42.756710297 163.798612033 468.455823487 122.099770001 113.699019268 508.485414409 292.524633872 122.38662984 466.025317563 206.440036941 202.925639649 246.03929342 81.8510816511 100.745526561 154.42367984 184.225212156 218.614129118 184.797398846 6.2146890293 44.2235400112 365.470513264 126.585322777 223.128401331 77.92061286 218.00815735 148.604206546 176.575037369 187.058461848 70.855384288 81.4227034258 183.214439528 106.856403722 222.423832255 552.297565843 425.73964362 86.2582148688 337.590383543 174.729245686 319.083290416 492.812283194 245.918322401 202.146696372 147.177608791 157.222911191 186.402959692 114.887604491 213.493295878 50.1271639051 388.519363503 160.281257666 81.6835693806 99.314890691 150.079648403 99.4307183667 160.691231302 73.2579141138 127.400908647 149.085376327 233.965467385 104.862605744 447.590306224 114.217021657 447.853586559 369.461592375 361.500634876 75.3227226903 185.65854841 126.996487715 430.446787346 76.6892636147 345.853111967 127.010734869 338.361217096 150.977131076 129.39183241 82.5349247918 206.608607758 102.296551464 95.1428331322 207.78796661 183.308997625 467.204189673 53.4451199764 384.195546594 198.677881065 475.903253474 410.428443855 155.840040303 121.486148044 87.9238694738 252.46069726 93.4089290898 71.8480229562 117.496408835 156.79886895 197.247379516 391.964527382 108.685589917 154.387135715 122.779914656 203.749841812 200.843870873 49.397055706 182.333687183 116.824281393 158.295647711 106.259450814 199.749695553 227.653682814 221.175486186 195.579786435 262.007999539 88.9099247996 222.524205792 215.01738914 73.4506459825 120.682837941 761.036299218 183.635046979 205.132507479 140.517413535 436.629386235 147.146496543 95.7566728137 134.201657616 237.292645977 345.585791369 582.807207017 142.850496181 180.012073876 119.629285197 342.723596755 166.313239312 227.608620323 336.61589828 336.570940875 133.342530625 34.9469656671 203.443649039 128.153357732 126.001672842 101.353685382 275.464084799 289.621107765 76.2785117061 422.445061093 239.417779787 112.509366441 490.776615775 96.0198862005 300.819770154 174.766651667 554.728378526 266.331362739 85.717263985 306.428144996 157.554141243 190.606640412 337.878582119 219.326063798 146.539588953 56.8061802549 158.332077401 219.289947325 127.228495705 106.425575546 82.9657675251 209.238071296 191.888200672 69.2566985428 108.987028399 34.9780278171 190.094085181 566.237580156 92.4746845293 108.774710066 109.992870489 156.667367294 115.722219283 108.609458144 52.7405297532 159.539769699 140.539351823 138.932633362 66.8172000821 145.591958773 100.684143167 357.80842823 307.234189336 232.998669942 155.365400863 154.302633572 191.134842726 218.68337059 58.7476601644 97.8515539415 107.882733792 146.212394151 70.0434576479 188.505059683 120.129107363 373.905755046 64.58384517 152.566942115 104.738768918 245.5421429 109.112437346 172.810049182 283.848397145 206.814705183 140.498474448 169.268695189 79.9021463976 486.810981191 195.16254737 179.863383929 107.486122341 218.932652545 167.997395563 99.8383544747 143.52796921 781.88292855 99.8755031963 87.8606828281 60.151310621 372.157171873 144.363817131 168.99343698 165.206118726 98.9979171797 466.050291371 50.3395548775 248.280346783 154.912394241 210.919997446 224.32713192 393.558027007 537.632640084 71.1777567159 111.824661643 532.769942634 105.620604913 89.0505713939 448.58035221 315.470299028 224.783670714 168.667679129 132.545244964 109.831156923 252.623380664 256.15611446 169.862959025 102.100533861 341.713787541 270.064125555 112.278679193 112.934758391 90.4102471709 107.287568386 353.109253234 637.550759219 165.363041833 154.84305733 174.635156647 201.643887389 19.0704703979 231.404271393 176.11074007 98.3154880825 285.062186101 98.4649474256 99.2535085429 94.5024142462 143.94698454 103.299385703 306.333888266 114.641754718 306.557189426 161.160554593 123.80920691 341.264914198 122.774269006 178.85950585 100.48055431 199.150054398 93.2777217032 88.0935019548 151.484402031 69.860922265 268.704939549 107.692607903 90.8662616598 171.022379728 127.723600417 840.924126531 322.305653356 243.798911759 0.0 146.261553887 179.577938925 234.021898286 217.040310479 207.474334245 237.667971028 266.222547109 277.869597041 228.826171784 189.565017081 326.170488357 298.707436667 223.793155124 91.3516692948 263.508681897 317.678861292 87.2588188598 207.844091747 349.184712124 291.808658626 309.811701591 203.352158836 372.621933457 172.222108056 100.652970749 130.381170683 82.9796029765 128.217118399 47.0514200887 65.0158452416 190.31150023 298.292830221 164.79139508 69.8564421825 201.336376631 187.050481004 52.8104699991 197.697782269 90.9002821753 144.926120482 164.135650653 73.9550417735 429.483873491 389.539707033 424.054092158 147.867248964 53.9715359837 146.744150724 209.981086484 137.098338983 149.41462085 318.745813286 44.5484806938 234.906985846 152.991319293 183.414783702 140.586922203 535.749230289 297.710808503 432.468165927 74.1871499345 111.239019024 284.524600781 304.841587438 105.310237081 243.960787318 165.648803207 318.975430119 233.613056943 63.5146244165 107.892698056 107.577869491 171.02146001 108.471582741 309.548396882 96.3571191086 100.270312171 234.890671163 346.534511973 254.766354418 190.196728719 111.711039274 373.37967641 47.9094790373 113.173874745 196.135680523 138.521465594 204.257601735 203.700501606 273.345042905 296.677882199 185.357750339 116.637748563 309.559257784 245.008731953 117.015460251 369.066419457 129.577868967 53.3055610539 233.468659938 394.382054495 561.294709918 628.405321831 629.440960214 117.231977543 51.8690987302 288.648134827 401.469386709 135.236409566 216.751605668 145.639089422 72.7278025736 123.809149356 152.926072772 136.246291525 320.331981219 23.3145945266 681.900085313 239.12171008 145.45747196 222.960268887 1412.86503125 91.4184805073 529.407812549 320.57194424 19.8403468395 279.889007864 196.642590274 97.0128329556 390.454523831 148.443920039 78.5230022282 85.4045459275 215.044254858 87.2278118122 325.893783909 72.7326088791 160.320139097 110.823896071 63.6696291616 112.480287212
conv12_param_0 133.902477286
conv13/dw_param_0 239.088170047 290.498204485 296.310479377 70.6679466259 427.110870788 117.159419799 375.072865346 45.328261655 383.341961425 242.515298666 0.0 181.767793475 58.1111305539 167.825322305 482.831443569 33.112553062 0.0 485.500522253 372.547562659 140.278815533 207.283979264 128.077325843 272.391959942 236.815809161 334.932053657 151.906831138 338.929693894 235.850656189 205.303933793 11.4094042809 40.4162263517 442.661088355 56.5272000414 202.691635578 305.502086726 337.606296979 73.6549493647 228.761042865 132.833697102 310.051721017 115.125440911 61.760029199 113.928994331 75.9756887088 130.056930301 305.800896762 276.054436729 152.687423982 125.462389484 151.558017837 202.152258227 462.339711795 392.633727756 175.684665324 229.277982816 303.967765562 61.6955292115 211.954069164 319.380857187 209.384286271 279.499700326 370.022716204 159.850689838 251.05960123 237.882608017 328.681679457 36.6331588179 343.529819425 102.812640392 444.171726982 265.919215317 233.114682844 267.531679217 301.823162786 54.5430686457 465.893663214 240.586225122 687.561254183 381.959154318 72.1462345278 426.577333751 224.608868139 251.760192966 295.326480796 141.50668145 277.573273059 346.101393579 144.940513959 182.882392909 348.695693841 250.665122548 262.135679256 189.78424873 260.117544159 357.569593368 7.4629510345 66.2837678334 126.134026663 233.144067652 221.901317063 217.801175839 311.779093612 157.678302748 267.157006647 372.215878269 103.721825592 227.732615547 152.369706274 370.136328649 399.943094015 537.443530575 245.867811054 226.07713189 30.7027030516 234.77963617 507.85857515 150.69613966 352.863324293 61.7916954207 383.148430862 112.284631591 279.432969568 107.213586915 227.499090519 567.007343371 169.677342628 115.752231974 213.770956855 50.275618001 193.599367458 27.3819997315 269.325936615 203.175062723 11.2489527266 83.7759509055 296.195515419 422.544544979 261.269063651 70.5615016126 281.540003712 278.20870434 218.735027342 175.807359216 291.063969949 337.428739951 131.885085833 394.383295464 86.0830899094 76.961963632 49.9316054133 189.88542405 248.641378225 173.475897247 13.4283625522 103.596153685 472.950733985 99.2798600739 276.137777911 325.38510525 160.026679695 585.597894965 343.55078456 143.377331229 286.432588394 266.002010958 430.558210862 170.112818621 26.9891096415 110.928997326 400.35219914 352.276161721 209.620478778 436.066508998 609.417638379 357.66067627 53.7844432445 59.5909720691 509.602720472 646.004538117 539.006225482 150.88092198 165.270203362 323.733723549 332.847677228 232.921468524 275.982459293 463.043088608 346.661311522 282.910023877 275.933637558 101.050694126 711.511038748 240.936245095 451.172088271 131.009525477 250.253392334 447.313812145 84.3046092368 265.392858529 29.683203729 151.705215875 165.497957438 75.6957089292 334.927947088 211.055569049 251.887874473 295.902618932 331.785348748 18.2075432512 165.814788234 313.969428632 220.033924798 324.438163022 476.323809792 297.85557522 126.48560519 288.769386553 314.974943329 162.806671882 326.814136544 194.72706188 233.24028329 194.06648827 287.351628147 432.904378341 250.963643773 323.363668903 193.685406834 483.630765697 220.399317216 130.061900048 89.1906108151 190.671473694 264.351192607 301.502929906 225.222500703 23.7023287504 473.517203477 229.741365936 281.059386626 302.422292346 468.35516808 211.438003512 235.143647979 81.0669111412 484.250526334 176.770267707 122.990986768 243.32060096 92.9325192527 241.053753908 218.581273837 376.172821115 157.35874088 493.054901047 83.9273828459 170.971521817 54.0722230354 307.100325166 51.1964077324 255.365059892 437.762389448 146.685698184 474.139889871 69.7433755286 285.099756782 404.126035656 315.90683008 123.284194467 33.5072053091 237.742197054 85.6572906649 256.020071086 230.37373823 259.566094804 158.446922338 82.4055507302 0.0 446.679615102 587.41138012 173.95666176 85.3308112622 357.816540102 240.764154894 371.715971963 183.764314591 227.20938326 81.2800868165 626.137858055 230.228490525 539.412829123 259.490053348 51.9297682166 96.8905724171 188.087755424 282.423374251 121.833225245 374.486985751 153.515114604 501.099037844 196.531949051 303.626655624 95.4678655964 110.970987323 218.217521666 146.384799111 194.853408347 406.744223808 342.561379669 351.986554276 346.67250749 424.728427287 41.5524307913 320.011130893 490.572770703 284.590421765 280.72276665 89.3924358461 212.316156506 198.855163658 217.387214157 10.3871297051 436.461953034 273.832113417 226.569543305 279.567728479 272.543314679 184.305702093 571.084159277 37.8650918494 217.071355103 133.910472004 154.830612754 98.8911357014 187.870501916 135.834790916 87.0352696223 424.445710675 208.637043436 252.720761659 406.876536822 143.629383785 3.8773965066 303.226661209 168.097766698 275.281192035 117.971554917 240.000553283 38.4263677488 97.2905053666 198.244603347 292.076365395 162.316225974 175.700528766 240.333362923 326.927539745 327.271112433 233.561354531 453.574371539 2.69677908927 201.985037776 11.2135267132 378.449194588 27.5317338487 542.190630312 261.368768912 64.1432092846 339.499678379 383.393004714 193.186007453 84.9853080801 209.856812038 162.190668268 120.20456389 362.107530504 380.385444066 452.571219323 377.125894481 35.0869342494 313.965056666 350.852801252 178.658692243 342.909392739 256.43664408 105.883818465 226.069048305 609.994475225 171.926555379 182.362448187 420.782952131 80.6481946888 116.057111234 584.124865874 84.5987344096 174.376084384 134.366432495 398.719362261 299.214433812 198.603750223 180.484248271 362.535147359 279.271067883 191.948842144 225.604412164 355.037145235 224.758323243 95.3086574997 133.159115132 208.883101009 56.8068345238 383.566584569 90.6397089465 294.530954202 279.926348863 410.561622402 80.5337516172 207.056983694 136.9507209 588.204673186 109.783021754 119.148940815 31.6119620597 238.431692441 363.20612725 324.84425711 294.264075074 402.447131069 276.692752047 183.301790815 446.419957617 587.097298539 64.7856328419 192.817515564 782.330491869 234.920298234 358.965882845 142.457163159 202.053015547 159.341882843 169.368989504 347.754983223 45.6131689554 233.042451179 122.896410065 216.577003225 427.659305872 58.6662848657 153.179574201 133.311770599 122.099126289 441.616728947 89.4464142159 266.117559484 486.377206562 496.643160158 292.952991753 248.098418402 97.6937267126 477.272704405 366.801023741 328.79930009 99.1481867947 216.870187193 110.525364631 243.953273592 393.830451577 72.8835754501 141.387991778 235.404738375 443.04528033 306.800429349 88.3771565794 55.039543314 127.140286743 229.720262437 232.178846149 467.989620225 424.219360587 303.45057482 445.275393442 46.0390151764 773.720045242 296.37586862 299.454363107 420.231238311 285.468015272 238.723460428 130.200706102 248.375623662 141.613239705 365.8870445 136.837183895 246.409931584 243.974084115 255.114035821 111.104053609 692.710592065 97.8034402361 136.714027098 159.236232781 194.556793803 579.439198262 154.316412801 239.38940124 823.920270961 266.267560038 163.074734491 124.699981307 365.318496604 233.207045465 44.249031226 681.933640091 232.611700878 236.941478289 312.25080345 96.4106161311 207.377992869 123.164613602 102.703841807 286.732917511 109.651056367 249.431757143 401.828189595 171.353612408 442.721931074 173.104880752 51.5223215486 480.423794423 59.1154300823 351.392045934 562.958906462 246.386823022 540.441536892 145.130183023 352.322354387 215.945876163 7.93378686342 402.989346925 194.951321515 135.236160645 91.995163954 660.27249274 299.789215627 482.736218655 501.635526998 225.743595166 126.346099388 382.252197603 417.025035714 284.821301741 342.766104947 549.547333319 177.092481526 365.439579592 236.131139438 25.4709491236 6.56327242894 365.271244324 80.8087798567 322.781709132 158.542478534 193.549686354 378.999036452 333.66071332 122.26662203 206.786083272 528.834690081 182.604177095 267.118188942 39.7274376728 237.511635549 132.792312316 232.198050488 84.5797269989 255.272848256 94.8869857417 88.8606903629 292.109540404 208.231835108 231.213880821 104.991391688 442.951564026 226.742851694 197.21082993 132.619006916 88.5026573562 153.325162924 279.315603722 598.71203877 205.500339494 552.967293551 38.79359003 322.550072845 329.535002723 152.327767587 10.1484100685 153.962855661 57.0326849002 308.133002222 472.627720119 188.426409614 303.26541757 79.4352243062 102.274789117 210.884341962 388.084056272 138.18690866 450.260003816 147.637159995 89.0418558562 84.6812906619 357.888812091 160.801212205 176.108323773 134.237624764 432.694355881 138.509525256 190.402297653 102.23606994 298.722471021 222.54391482 175.844038272 579.100724275 170.085659787 133.178407899 330.456307649 401.151890423 231.468123122 179.80822528 346.386180165 303.627347896 299.454215806 444.536750583 165.017434314 291.693007692 199.780336244 213.842057037 186.761118814 98.1944765532 174.409984272 85.0658971061 344.766944349 306.217705659 149.890073581 145.3615223 266.79981766 0.0 177.732825336 394.909182839 168.987083991 251.056702211 226.758416121 51.4341019305 246.916643316 283.355520871 229.94884223 340.920993034 289.490919249 310.072318507 139.836412302 261.000677029 182.605006518 431.809301655 395.701402064 205.132408734 200.760661921 173.970737373 38.3501558264 221.219736765 445.071838455 678.475636988 146.69085864 221.223733278 240.137745128 322.627606237 226.215986299 238.117616135 244.56167637 136.609228516 58.4372668632 176.992787402 625.221550169 354.533172554 249.576993866 103.892412898 264.619402516 209.489442136 387.545442053 380.083965712 127.529479589 196.42934548 115.073225603 180.809461838 82.9040972873 151.069446217 35.4566435136 336.038322794 108.432632429 376.726121096 136.553204992 177.419122205 193.983394882 97.0553261517 73.4474152634 239.326642646 373.738348689 48.2511612672 85.2155363047 203.24522048 372.910054251 130.597283374 176.653227122 397.336533349 192.963918655 243.781031818 104.274677866 74.2986314057 247.003116192 320.220917049 776.968952149 191.668704788 184.602804703 158.667718838 177.847115045 337.97958265 472.02196279 456.833165812 566.588675401 182.746619451 210.274227279 218.328204697 160.418331076 256.350596371 213.387010782 73.8520773733 200.440845482 137.85626501 134.940712713 293.844520213 130.473216545 202.710379241 321.419550507 169.80422183 437.440954939 251.133815248 128.353226628 157.004090111 329.787323959 368.386148156 349.210608418 267.243440831 236.009020752 324.219239836 408.269962836 413.804652438 75.1334474889 256.554347407 350.185032302 105.32293872 207.431190676 365.847402757 176.823020334 359.188663246 186.310803817 359.408719367 144.415823052 201.671256117 235.452446695 433.327503045 308.480321246 162.537567256 356.750078379 399.473625577 115.428948975 110.927160845 271.266849667 297.056550574 51.7734178332 570.56268338 135.875035392 202.967992558 317.325229379 54.8742527085 211.207162406 337.267544701 111.319778905 157.00144084 310.401821353 24.4622256707 149.851364521 176.545834622 224.366816893 81.8355705701 215.664046492 527.086395574 200.910286902 0.0 43.3197977486 195.041994913 124.825283913 154.444925006 355.805094809 96.075461237 67.4515134394 324.840146566 135.14101139 301.872552278 406.849733282 142.510635059 495.886018475 104.034915237 329.663665324 311.306418931 334.67498197 122.58103153 217.686822892 259.26776419 386.827258467 436.42163442 63.6558651292 177.595986895 28.9588275134 385.707318234 328.250819411 144.196234599 447.793725064 285.058887219 260.238826387 231.351205749 190.00537742 225.233238055 241.546814561 25.2923110467 510.695905139 52.1134775558 133.758214818 77.7665902714 184.503520338 408.381666178 408.491981833 302.403170746 118.342849202 245.170441327 206.761963521 96.1424913424 223.473889074 559.457892269 198.896818351 207.885946896 57.9332577822 554.566527286 341.967190861 180.365384781 201.076149281 0.0 68.2548183297 370.763623721 62.2113876248 215.753669533 111.207887819 181.710515478 304.66296245 74.2610161408 407.724766425 202.589820888 352.954919161 299.62271754 80.5970233624 327.812563844 269.166503746 489.218137776 228.521630499 112.093842259 370.232318819 8.01386744292 297.51933437 148.636239034 544.974885947 452.001513385 172.351136129 428.894488792 94.5691973515 215.158498235 503.251136604 418.161305133 67.7929773471 330.059459474 68.6161633649 167.683459411 149.290396797 387.407227095 25.1764369585 367.110125124 613.146225164 296.587545852 122.511691503 61.4996752277 229.618613762 135.300137624 150.596743679 367.98017918 93.6420806296 220.451080845 313.479370995 20.9639630691 32.2125728889 156.363015602 232.540415003 238.389063606 477.685404521 296.423615015 188.505743449 216.930951169 192.620352281 74.1141832907 46.7992426396 250.839673117 80.0940613517 349.768754255 266.185663159 212.386524964 31.3244728678 28.7224431724 198.834843837 25.9645069539 367.669262592 302.525925827 215.141140017 368.797067287 96.6289768688 137.431956294 207.022622208 170.773606993 290.402032849 638.339797851 121.053525075 99.6608926169 325.357554306 60.1528593399 169.806143446 472.12006841 354.973915069 265.043731026 153.732286569 146.488258115 128.530223121 33.6990609398 255.211054185 222.067577877 356.596246136 285.024758767 97.8406802017 49.7909248292 347.790886036 430.145163612 23.1789923227 147.637252064 91.0362537424 340.544668763 346.851035605 276.536683051 105.756331041 359.094046897 98.8034479039 197.034753082 262.354225525 209.47053594 185.228937216 195.562822818 368.899581083 374.434206527 252.159143218 106.287056294 114.113728418 231.929276533 152.481211991 269.350143637 496.276986333 114.551140772 45.8905802325 146.032267366 95.4212036945 60.5576376687 94.4747840393 445.726229488 217.34783117 154.680389407 96.7928326185 45.6709198417 214.35175936 117.150839484 287.289966212 57.0012665602 37.2731827231 85.1866929888 301.022576837 443.085035387 240.995325901 112.040333767 324.544781813 519.120838002 441.03577001 283.313021383 21.1078183353 284.869434613 194.803598119 230.194936613 526.611654488 352.645108713 76.2279718569 210.849533133 252.123427576 347.077401431 274.693147589 142.680425339 496.60681361 340.57161289 281.127953669 198.574006036 58.9267632177 73.7644681711 68.116159328 476.681488932 73.6782436172
conv13_param_0 139.46880996
conv14_1_param_0 217.114642238
conv14_2_param_0 135.036341695
conv15_1_param_0 363.399615913
conv15_2_param_0 157.428430349
conv16_1_param_0 283.463748659
conv16_2_param_0 140.088296847
conv17_1_param_0 181.295474825
conv17_2_param_0 98.4925936862
conv11_mbox_loc_param_0 78.3555422285
conv11_mbox_conf_param_0 23.8404454112
conv13_mbox_loc_param_0 137.15521692
conv13_mbox_conf_param_0 20.8723271414
conv14_2_mbox_loc_param_0 148.255007027
conv14_2_mbox_conf_param_0 21.0791147728
conv15_2_mbox_loc_param_0 156.434490254
conv15_2_mbox_conf_param_0 22.8982352066
conv16_2_mbox_loc_param_0 163.664553431
conv16_2_mbox_conf_param_0 28.246942679
conv17_2_mbox_loc_param_0 262.461097438
conv17_2_mbox_conf_param_0 41.0664206634
conv0 127.095312945
conv1/dw 12.140776972
conv1 7.76015873635
conv2/dw 2.02617835862
conv2 12.3205223948
conv3/dw 4.29138853666
conv3 4.29568987974
conv4/dw 2.79332714486
conv4 14.2210516904
conv5/dw 8.13096429686
conv5 12.5346368594
conv6/dw 8.09510843096
conv6 14.0726697724
conv7/dw 9.74790887268
conv7 13.4629400577
conv8/dw 12.1800664203
conv8 12.3694918201
conv9/dw 10.1867335105
conv9 16.1458264094
conv10/dw 7.85919393521
conv10 16.1673664897
conv11/dw 10.6122063349
conv11 15.6469623075
conv12/dw 16.1302412944
conv12 17.8686558459
conv13/dw 15.0689909917
conv13 11.0592240356
conv14_1 4.3709879716
conv14_2 22.1144931651
conv15_1 35.7168776319
conv15_2 47.9024274817
conv16_1 31.814706644
conv16_2 57.7670853072
conv17_1 33.3671660529
conv17_2 41.0827503928
conv11_mbox_loc 16.1302412944
conv11_mbox_conf 16.1302412944
conv13_mbox_loc 4.3709879716
conv13_mbox_conf 4.3709879716
conv14_2_mbox_loc 35.7168776319
conv14_2_mbox_conf 35.7168776319
conv15_2_mbox_loc 31.814706644
conv15_2_mbox_conf 31.814706644
conv16_2_mbox_loc 33.3671660529
conv16_2_mbox_conf 33.3671660529
conv17_2_mbox_loc 19.7726278117
conv17_2_mbox_conf 19.7726278117
