conv0_param_0 27.134331280773246
conv1/dw_param_0 42.069221163192786 0.0 0.0 0.0 0.0 35.98480127640527 96.11561951916623 0.0 0.0 0.0 48.48839709180639 35.07738026643122 35.61637202803861 0.0 52.942393323896646 75.95921551090555 37.77262406178559 0.0 23.294437654490405 41.65362927189355 74.39332221132025 114.5921464468905 0.0 0.0 58.052207650106475 32.90691714993938 0.0 36.6667798772521 76.18282650412091 0.0 0.0 23.983230181854626
conv1_param_0 21.94256849969925
conv2/dw_param_0 439.58235201946394 60.19031778086734 83.54558241372172 485.6886587128275 369.88258854188547 995.1531243052584 77.80683586513659 19.69283186411283 453.72263144277485 76.30747403433571 401.4559223189751 94.95585401719049 244.5651291145488 226.90028355261708 375.8308743240484 169.79876846656643 1268.0333718452598 266.880354680378 28.242653379930367 508.96893064235366 344.37924757232514 101.71626922635528 460.50639167628617 253.09245716197108 323.43685603991497 305.57692072986873 578.4457285935242 285.32764331353485 273.3067200323139 177.76728666300517 227.42879137124513 1689.7675135305105 384.92477342132 437.611881515919 243.3900314908534 815.4993912095539 127.46945872217323 384.25870179129623 568.5987964779645 157.3700725523551 412.19874624791356 290.02236406374186 325.1368184480978 598.4722759755831 1249.1614710155416 58.58798278777317 211.2753520237137 181.55199966053362 236.32340061547936 181.68826508141498 403.46727294193636 643.5528868879251 0.0 743.2669415435588 838.1239768345388 398.5626259299868 359.09640715918806 292.13565325479635 178.2281010002475 243.21791755089302 1868.0419828170816 364.39866910316675 1672.4284298631221 152.04113425611922
conv2_param_0 48.896701526182
conv3/dw_param_0 90.74874288646488 158.82716418595788 184.41901063701616 88.53824173979385 146.60096112199932 61.96625430406351 133.2947072833417 273.1982260824856 50.88788382417412 134.8346805369982 73.51641587938748 66.03895800155627 35.71806234513894 50.901027697414264 100.85236161939994 29.33455104325888 63.975856490820014 60.08050803249746 71.94276524100196 0.0 39.907897488164394 161.2549095111199 46.82253427481789 48.83025977335604 76.54974529242223 58.755157488826434 27.69387724756835 120.54071867554623 94.12680180914462 86.394766326522 174.21132611400026 106.03585033060273 78.86296258982122 57.772431481295094 146.4082759077516 68.20184638328688 180.58225264980157 165.4166529123941 138.58176601950493 114.14324266757637 80.55438245594588 844.6419417945267 63.943041018255116 51.34947051907755 32.852303262216004 118.2234472448255 48.242202976820444 45.262175949544776 165.30822143491943 34.388552053784586 123.68926647209578 114.43338817511977 47.35658782890248 46.351933744540986 59.14735110496701 66.48855821087372 45.37538411476635 30.083930793190014 50.015347790002934 46.38443755115291 169.61619522098837 37.06287752898104 21.43903616614723 57.248873404038314 95.31320234394529 147.61208075181548 0.0 44.66506630081126 70.29680066227324 93.03629483059123 67.95478225193693 272.1889197714499 103.36975716743171 355.3449521514882 50.347705350059044 29.65587034977537 64.86891483191125 55.93989269192547 269.8551405210011 26.844489849646113 34.85019632637808 64.54624198536334 299.27549928201205 121.35433650640903 55.998005975555536 26.43033794211606 107.30020034816184 161.12890409535547 141.0358216137555 0.0 87.39518954243648 141.26275754916784 62.26909425876417 130.15218370906643 103.39922316151136 27.81827699802177 51.55237911079806 44.14662394856058 435.17433053113393 73.46457474907409 55.22627729204559 35.220390876890036 100.92852981866078 63.92465895500854 48.549538927739945 66.20521186038849 58.75483345080404 609.5664428492418 142.4690126988071 247.75555355297973 127.7050595612514 47.18024815402605 215.2552254318629 267.4351055117861 98.90236355836512 74.93875812288385 118.4747442767035 73.44166346399432 586.954935498029 186.19742110315545 23.014063432948667 165.28925509050117 86.50597826082543 110.25915931719943 120.13365890601175 0.0 186.1247815833548 90.50231978658388
conv3_param_0 48.84792049296475
conv4/dw_param_0 124.40422147492855 153.72340245779222 361.83585451854896 179.10187677723843 194.30329588717876 434.32275442187114 200.87878731311974 130.18174139838976 179.55775110810654 203.9836606775986 456.70797474620656 221.21670502413838 624.0899949876999 227.53356390254498 257.13950774834535 363.1914234786941 135.770982246916 217.94643179899114 184.4753737764377 181.88265970426465 243.25454255680108 182.07985134904638 684.4759109024312 250.0273626998133 330.0077769279926 197.7077248954538 373.2155843791874 251.2840049079662 937.0518433460923 309.2544528580696 162.714071376026 146.56255086717005 0.0 197.34091463954528 265.3926106061812 1187.3105664930151 322.13758772787554 183.70149523961348 312.8979720287063 338.7544586093843 380.4200126353982 278.549496084082 485.75764170586206 390.98665929726843 213.66295965676048 251.10273944754735 386.700433115156 139.41144769521648 183.6601355617512 483.97169318145296 304.7801914500739 175.62665415542438 247.28757809317446 498.61042208940233 516.4296661492367 713.4219765917805 503.8759409955889 349.5024860989648 167.92550110522183 675.0366476438617 151.738837077405 326.8689604134917 256.4671865446793 258.45310961868546 138.9371539989842 302.69467799808996 132.66818862797896 130.55655219489 307.55186910775154 171.58658380091282 244.24477638493605 183.08377309710355 253.09365969452577 360.72496780792903 280.97847679979577 475.68013816493885 323.01093613159077 315.28028772439256 512.4519241360832 208.91109789426642 158.84658300836495 739.0485154559077 259.0586585478096 344.2320873678337 142.47004152995527 981.1227261932431 203.15001535037956 414.2505556018922 306.5794646623881 287.82340364500016 282.4962040722977 1962.5276270039008 347.4208894270769 437.5159575183493 262.1520632401341 448.16986610999845 787.2259088059157 269.3971742146199 422.7434436969415 428.62353099268483 227.84285766071844 90.543031840863 236.9844607532584 228.90722318445975 235.5888888446615 252.81977766829843 349.415367227358 403.0127856446398 311.879927102843 452.53440526481955 356.43097890586375 139.25711627728234 189.56936841570504 187.50207301497178 127.35973328596086 2092.6956242357182 143.44535295212634 356.6007222034032 242.8494221872088 193.13440244766093 228.6641919738864 237.5212995442552 228.8859530062796 267.5975847842968 535.2417877202611 415.4763816127443 205.40984205846127 290.89200747030594
conv4_param_0 72.4383360454139
conv5/dw_param_0 150.73549971953392 99.04928555218032 122.30977188237311 96.81778799172241 83.88533361868512 176.8097998819833 183.80965358795672 98.03075194287281 496.6672976678945 70.29066446332858 64.38954836913646 131.09356398807236 67.3746660763272 279.06219720575854 196.6391603393845 219.52575409398275 339.5864685392981 104.71715944737893 109.887426558422 287.2932200919384 70.31942062279182 110.16191803899453 126.25461295762938 101.37218289471492 185.23896963383703 67.05425332653488 200.1574267650263 131.0345500418618 125.99170386131742 111.70246541543368 121.60076922084772 178.35616598432475 184.11319155326794 199.73634469625065 379.67225048278567 79.85987821395966 67.05706848669078 198.40344992080927 92.66766163666941 191.46084099821363 45.120140975503524 54.3573684000527 488.9175127718903 431.20496947706613 167.57576647966272 53.98289638912848 123.12430206465893 329.25452161503745 180.8817423069038 51.60503432268155 188.79455232735302 188.37708262273296 331.1268273927948 291.45873129451905 82.00758961458435 131.748907016667 645.867170983322 114.61809818987116 225.24354782835198 139.82670334817894 54.70906409909975 107.63623578321429 63.58706202517631 200.64499935730137 110.04062158431988 75.4406052281913 40.786301938778195 150.1603492318744 91.78236234948699 181.06064251308388 153.78845435960477 159.8815641887988 164.57798638008694 158.51803913770078 609.1096688542558 41.8941393132929 88.34307142727427 151.21039500021467 51.889921126194196 417.257049306173 222.88076223798095 21.321894123800988 81.38818060932736 252.75826586549485 582.0736716951311 179.29985599337434 187.97095655905235 109.67932327336018 67.91290141704127 548.498916269346 247.15809440025686 149.40748593265485 157.74257647108556 135.8139937135782 92.73158528272755 194.11208470028419 49.965510183675164 93.2135977435264 61.441514210545684 123.61793580775 204.3639422411522 152.5774084003037 78.7569557406983 495.5719584848387 67.54409902777621 291.2927733033515 52.80174872956011 340.0455321619909 59.273065545736735 80.60076733726464 143.76980275115207 154.93392055877553 210.471197626593 52.26752177091357 219.38270031519886 116.69038394618556 143.44003205528676 212.19016013053835 62.74474653107144 294.9658658368276 106.9456184652419 134.93732004031324 71.9728261262428 195.15695235499243 137.88737352947058 77.77137598600025 77.22882178032502 69.51181406919828 295.14028845315414 73.31692560524046 117.44800277812995 650.7279764771113 151.27482983141715 136.4906432733928 77.03739493124613 135.07918861187042 459.77358630622444 605.8548203407884 72.32036272827413 154.6574965580155 79.11427450086347 75.78652898247101 81.51152726440841 71.32571197956355 150.39085000747824 90.12802023341932 127.43176763242873 107.32408926161935 224.73324222525213 69.47777379889442 51.11247272026634 269.15812224532044 80.81338335679432 203.9950659135585 76.69746790051295 150.20039338045947 195.09558913342732 108.93107542105795 171.18020970898246 165.76023535439575 292.129945676361 58.24524083666014 474.0588200939193 104.82702888911433 201.34054315574622 88.26396575134831 726.266849684315 74.79928604056526 316.04691310449334 142.67090975246836 287.46155390397166 150.6441885787771 140.5892690996646 112.57511141769292 732.0988782328801 96.33888178870113 177.98952983322565 153.11535536783146 71.17086668264196 72.6368955042987 267.05635176581035 102.41497266138445 292.2815826258486 112.67943840995498 242.41765134674108 51.440022519879925 108.70667215223766 67.32478678389387 87.77057047279553 142.93851723555449 155.7805418722093 129.80307433818572 155.5762328541373 413.02929955912595 226.4162750591861 105.54070598678058 72.27571485645952 194.02633730885637 134.87234526456567 172.13117184563936 61.75630589483855 244.3658997574125 243.72712893122767 107.69894407132422 155.48201665849746 66.50589121745335 70.87054295579463 171.93633621856594 124.87694802058884 151.0333695055283 158.79692053999585 110.66685849487502 71.89739344644094 150.08700624626888 86.1379289378583 189.53434415639637 118.88870182991072 37.54418316952933 155.95449336717815 177.2339109575926 151.78503650680193 101.80466254104282 143.2458820546804 138.3235006029684 143.4163583676364 151.94355392810374 45.770762360259646 63.02565139522108 150.10382839338453 51.34062138084289 60.045900213467085 153.97308040980838 80.37427478722402 206.98376804132474 121.10826729247704 98.78637051708414 108.74134642070214 172.38757256587127 67.097502860618 85.75909234013064 113.2596127656652 106.167694723481 469.30221312758135 138.23864835229074 125.42664367744369 242.23539747995002 201.44095336013595 112.17417136825964 156.5865881827787 60.74583099601195 96.21690522354118 212.93287562946773 431.01699373482774 131.667842344626 259.5844045152711 82.67670212722201
conv5_param_0 117.76922166204277
conv6/dw_param_0 591.7113539254668 452.804450038279 218.75276823005242 476.561971936675 176.40215629397466 393.54250761566266 82.24308337254989 426.34951550337183 290.27390960120937 272.69445380676507 301.6453235347623 324.7335563650374 437.3095603376388 234.37103263299062 112.35703389716106 708.1787492009664 290.8246488398852 189.41072454206025 164.94906327608737 126.30622435811178 249.32852019692996 347.96130548704105 0.0 150.03216749811853 675.6681270370843 574.336500952968 277.1542485496501 165.05092510969536 352.67429360249076 209.48921557060493 217.3797178714216 690.020409412385 146.61510406943592 140.84132471749524 141.44695489663422 321.0364067174108 459.28385216997873 506.765015933427 552.5167238426959 133.0793317685145 1258.7715712671945 576.7252224020546 117.53960251246141 321.36610301451566 258.39138020502685 197.4637775956812 231.18784012270376 303.8953429074269 183.13315253569505 643.567514089418 371.3280977164881 445.18459152394666 222.81370730479992 256.76100613810837 296.22728531876174 167.6661342736731 370.80127290591975 334.7760222091883 351.8851748318385 246.0533008019371 383.7393541106426 213.76463007152722 221.57481764614982 173.68851036079366 191.35744757399237 443.7633047364045 304.3841328446231 343.10235150083275 590.0304843548034 302.113166823971 239.28898715826008 134.84081573036426 330.70082879055 300.65053484647285 214.79603531285758 265.9789996188898 399.84683849939006 287.6547818227352 380.6430935558839 333.2134785985622 144.7457349490569 279.63859730700193 179.41138155356467 112.19133559256349 198.59847446781836 232.63130707676558 556.7128596898792 218.32475953301778 133.1047043659548 542.6591279035451 207.5903007775333 173.2901974584886 410.7167371914285 183.69278472403448 453.85585822580106 125.15549273357873 299.64698830864154 162.04374764905324 276.62683396824974 276.4790904803542 702.9198970811196 237.01780859693378 147.65720292211662 244.24693224967976 70.45882960853157 131.9823583845091 289.8976323079983 143.58757960066507 375.49748940672737 250.07035233441326 248.23314062614864 228.93489262591623 254.85695059023183 547.3346050148383 615.9468917606042 429.0799692936987 521.3740335985118 338.6162089195471 111.6754054884153 263.64438566725204 230.8936220475598 400.51128747815306 157.71512590598766 187.03279748500591 170.0156571603569 379.9232438610584 188.82865103441577 104.20274319361101 228.54324975142094 400.4143444383598 187.21659331322374 188.18242591470937 134.21376288158794 685.8682916033938 61.897237474816464 223.17951468160015 166.9800304022328 110.54779762700922 334.32996512117523 345.3735982156751 92.04352828860118 762.890429042668 239.2410278429141 234.1579479442748 147.09727845657886 308.99903973766123 331.710762227993 249.3485654689265 319.6878528435059 519.0174000137263 245.86460513504338 162.5512072139042 154.18610591056293 99.64237124838743 490.01605523892664 197.95691024264815 445.91213881058366 358.59421998082576 282.99554562610365 241.98263118037923 224.4580747039558 476.64203423325057 237.8051889522652 130.3560840017527 293.9189207233802 241.18712926943624 222.26876945967268 396.85578963111914 346.5219723736285 608.9185803554977 192.91000445447204 212.5212968996441 58.01326162766637 205.58316058334228 544.9132828509413 454.5982746567934 466.2547694850118 226.62496930143413 157.53274260150266 323.02413350026984 305.1538553252567 227.84219983669237 274.29037630139334 282.38716054782174 246.6936564249801 420.3713118112105 293.2860090869248 215.24409194280165 302.3364894081803 362.40081729157106 429.885719986801 627.3632030965567 290.038767504349 37.64736321187173 230.35590534019315 283.8062411210919 157.69279653161266 202.0675785839171 120.34893641729634 151.4797172633605 262.40412810805003 345.21971409730673 175.46572408853748 166.36674093168529 254.36564685733666 160.37202645215953 281.9235114594013 255.85094190975155 321.0544017334203 228.612890565066 277.2032868271918 386.21079755633184 681.0196764614955 216.61963092323074 379.88690290947704 334.9435841763489 250.79246294828266 194.2551301451653 444.9058118843595 259.7409646665218 561.6089458629008 238.62250843945247 247.77583651565453 478.04765272849465 246.76079596938123 160.64526560824223 358.05528389159394 391.2166700726118 177.40873718948674 254.0234382320871 413.50306152806843 242.794381116632 441.2637480569087 190.82740064345728 271.3750244538637 502.3252380479748 373.42833004501125 169.00016577147426 300.71227283992226 420.87504530807814 215.2680782156172 562.0019023919298 249.68842442708768 271.77603283700694 234.44811463330552 395.30775581568366 791.9917273597059 300.43143188273297 618.5159528562625 708.4640220847789 97.8132190445761 473.0920273010156 157.69853876724923 561.5871865626432 0.0 410.70699950018303
conv6_param_0 119.58753576895221
conv7/dw_param_0 120.8194417384066 283.2885937164288 136.33780447719278 90.30376217213225 510.2966551684415 123.67973181657446 107.01657513839737 233.07561660330862 279.94253121835266 96.89337468141517 82.3781639255174 85.60630843505857 167.00204388189425 113.32909484755483 276.3064924438047 75.49956458635704 512.0865672915215 119.28517743245686 622.1028416951295 100.14353998801684 189.95405188769112 151.60041816458818 93.00958012807669 184.9557426991877 414.8995822197557 100.49960667213115 169.86543719549957 164.17844888319001 94.90647827072696 117.63960638139521 134.7984013022396 88.1224742773892 140.57190577310257 123.84598017052065 168.14249715988632 148.34456969099907 131.57533880377648 482.9419208958617 70.74766485597198 101.56184805684128 179.55313609036634 166.0636526832094 124.84857209454454 192.07675041771856 156.73318277224539 83.20806530409494 125.11436723395735 121.29312943412802 133.46034579197487 178.3233414983367 115.59074695256253 147.3141559785811 128.46531422869495 98.47890061143903 81.35443255273226 91.45655082233814 121.5495886824993 113.63206446444298 351.43241337774646 74.05378414841603 65.68687453995896 70.99145013234683 167.92126615105397 171.86729758425824 112.7210230024892 187.52354219962243 27.827650521184058 190.46050524129066 58.55137171432359 155.635211507519 161.84679587684246 103.79784039567674 70.26551399957076 115.29676921105582 224.13759378968115 116.94521127627911 81.33247096057454 136.80121572748885 107.9564495056474 710.5868032919943 120.38131569199923 147.57716606429432 181.1629553611132 96.04187299432567 171.78151347223513 71.11755565957453 252.27683471731748 117.62877361042563 274.2775770293899 117.00771061296875 206.80621412604378 90.0862178354022 144.84408299057569 83.59321413623798 69.77809708593897 51.04654399625265 160.05711708908612 208.50392762595797 148.56736035079837 124.86550243869965 120.1141953500664 580.0397146470202 89.9262491341665 180.54185712248483 118.32895561391922 351.8149584723546 120.78707288007054 93.84056110910426 137.55983851051815 121.06935917471937 83.36788622530507 93.96527647987477 108.67349433575484 147.00191253002106 130.48126245858975 131.4032240717004 169.76479770585962 121.45353178074839 109.23122468713579 158.68137877742203 88.58919674908108 262.39651790884386 546.7199645391322 494.2829912950363 195.39322292844102 75.75645229199642 231.53248812512606 98.79958115447381 233.86675309916143 55.75180513161018 140.72807932477144 140.31380834641726 52.38304732657716 109.47160174344316 186.99340333987624 87.65411650989324 50.64378117541135 89.75368095554546 162.64163599572876 126.75940427364766 170.26162629208102 82.40827256352345 167.4148939797921 119.46413664588194 119.95648498327472 132.1314657916221 132.80024122987848 77.17575728686975 104.58973292907996 134.37796578849614 175.17839926215973 117.20165686899637 587.4411790694901 243.810014820565 104.73419713839137 137.7947049406305 90.00373294498405 170.80813335099103 364.0716874074584 73.43848922108079 110.72603633270572 124.05423599659144 142.0973316099685 152.27837492084865 209.6067243940095 127.11630268372268 160.3699261722523 115.72498477879144 207.6288569621087 137.29614541607077 119.02800062834886 391.3345441091215 58.73512569890922 113.29983138279403 110.38394619111 103.63447854752827 158.1030974222899 119.80892886743764 212.07609116288253 108.57853067452712 135.86667442911715 148.95183732693673 125.55026002089218 106.01849205309038 59.699767477854806 210.42817040729338 344.72862341541116 270.6103105811335 109.5918605079385 227.531158443733 138.74996162849388 236.11148834561112 118.98656344365408 132.1152766950087 123.42263613086989 137.75115132772004 213.7617992254356 175.03069677729923 59.9099958712361 91.3168248395414 201.23297271685038 151.0207697407656 132.70835541291748 385.2683240128105 161.43941300997562 142.95699769606912 86.20150677205926 90.87851634434968 212.6139060071155 152.37139519773038 138.47534549029723 165.04039066128425 115.08978412857954 109.17489768887272 249.1049146250928 160.49489192859335 77.45961554960643 197.47838208165516 44.1040261532546 68.40293550984158 135.35021927088587 136.77409836215003 161.5404019233159 93.0948462652944 337.4691162919467 99.65710762055822 166.9334966284346 82.080218253288 166.99275092040887 109.45545073348339 118.53176771960298 96.49719159464762 93.24820736147014 82.79192924313088 143.3445741009893 82.01942761721713 156.97503399445554 112.69200116103033 285.2847030180077 138.5087959353021 124.56314649054171 107.84892146342452 158.1300377590265 306.92293465954987 119.25823093119425 42.34781845495145 185.96706000642376 135.57844882484184 168.3342372965984 89.25964411369466 164.71862684745486 553.9524321725876 240.28593251737632 147.81033882575386 112.98064122033783 73.87212073123436 96.62269321782118 162.04533742130192 141.84795040083392 116.36033443433058 140.02786563858515 96.72133644361072 203.76498175425752 126.47495890036271 115.1499918827256 167.1430309991455 119.58937486943542 115.94025604180388 167.57460669201632 147.2642048154358 123.39901922776436 66.50796298339083 81.188493224304 183.85791821898155 155.23753573559907 95.87354143922998 114.74647616234915 112.80771243041198 153.1916666630718 75.44163093642089 74.99298122439338 102.5586213143964 77.30329648385892 88.02711823625371 94.48762919560038 111.06941966338253 135.93883785181174 174.90358513096632 70.2288983842623 171.5156166320784 98.93336126693754 99.78230467533501 249.21228033752973 637.8722225178514 103.69254889502338 153.85267259272416 126.66111397242581 171.64176272263438 110.06617856877929 170.61091060966532 121.6824086727937 143.76449655825178 108.27473353936315 201.80844063835946 97.24536491935281 260.0212502387314 93.7763958829879 77.50552605784884 73.51687753609517 166.33102607986424 87.89565847002696 115.71386074842589 150.7573741197061 78.2783312919137 126.89424733125058 113.87183330158805 206.97441867242247 64.54459955660141 156.9806084186648 99.81834549495359 167.15265540650952 62.47829179875125 103.11561593621457 134.50271277145075 117.99966129265034 83.96381594865545 206.00145603443124 228.6537139187632 74.37878462493545 208.75098004502627 164.54327675127206 179.73488968695838 147.38041948406564 130.17786004300189 65.5645756039711 121.54721730331538 29.063196869439246 149.92477270883418 116.29870232938387 129.1612462388955 182.9196183724676 146.96347437241192 73.77693746891056 255.0066225284452 112.64877036786397 147.23873319927304 68.69412536267662 85.0724589815196 146.23884677355812 166.9433062024183 132.56084684393903 213.27306066187418 88.26213763317675 91.10868904112917 399.5671912950986 161.0562415435713 194.49057006093844 133.99749098992697 262.4013812761102 176.03793094958408 89.09264729261112 243.28273382880332 92.16260086079878 87.50067788488745 66.40791434586143 108.06898256608662 186.7828934841922 116.70649066224914 138.11415673935673 95.75180158176268 50.64726741381718 93.80826101925646 330.55302143197116 97.97965936088043 125.9234237545929 137.71319689424618 555.6220266556692 110.44631393343404 202.66634098615944 156.8358712078637 134.9082884737877 284.65247033498565 134.51034625561812 136.26544354085712 129.10760429193172 253.95007947909104 137.8781296128158 74.54141032748234 162.83844987312366 86.27240879272196 178.62219235926534 116.5833107174686 141.48118957253513 185.1479929920823 142.42809060904585 101.21351498223413 150.00393415053443 151.99353193038692 202.0782339248374 193.12948328796446 162.7654188200471 123.05326601567468 144.7783978535327 148.04269636581185 244.08408967631777 143.09995817896703 103.4213663131314 310.63899737400254 127.84272086792868 151.52439050321064 191.85760061575775 196.25706493826124 67.32534413804893 71.78562875389325 136.64295758931434 153.16749465906622 66.67764131786942 62.60944740122947 113.20072760216112 141.9942357458397 103.07575897867116 138.83075704137022 136.4715852439479 67.46972823210909 140.56034187718438 92.75385220947828 138.57022081810487 120.68674794744787 76.0665685245365 545.5731037138202 96.42915119522094 96.69392948929494 131.33653129352933 65.96722992465386 180.89140147412422 149.01292310971763 94.49571681616875 238.58328426081786 90.49732271952065 98.2773872380277 683.5348954786967 137.24322573360362 151.6105472863096 152.98505795636933 116.86075200684303 141.75247711822416 104.56549587559634 200.11935857557748 254.15559387831235 129.18716749123 131.5082196246679 110.76350806990322 113.63263411458222 136.61267074688956 90.53168293416432 176.48318958587495 81.996663803764 106.8457405299617 215.10534618005173 84.61505535841975 86.33770367929525 171.0971433279342 120.76100411278762 107.18667357799879 210.37591704102974 81.36997306974028 217.5440449041735 144.40895201315922 301.41513206341 126.7590423001625 131.77850985778454 326.86178990000576 76.5879921375602 483.7099814741475 107.57122170792515 95.10412868598245 60.80551357973338 152.86211014073862 136.03933540576625 84.57569825647647 120.7578831870645 170.15445636905366 54.190790070696295 95.5876661911299 190.06747941596018 86.34929214624617 198.91906360909624 253.1041823418463 135.28002773273465 119.73057706401305 544.4913209899148 135.07042867980226 126.4029145848246 113.83665677809307 51.96296429976855 221.6362181217513 314.8527198725816 239.82156348059985 88.5515030976932 89.4364196997108 141.58513149960973 119.34064434231725 104.50505999740639 387.63427861391193 98.08804760213727 122.65499700602284 187.75046525529828 87.18522378796251 166.43465442280382 113.72593983341098 144.12704083530795 110.67960887470443
conv7_param_0 145.5512117800285
conv8/dw_param_0 458.37622792805837 306.7684491179048 300.7232652856143 243.31623855493862 159.60248576731695 48.67431442228352 143.38140280113402 246.71482286480352 447.04816437945163 133.40355037573207 117.3843856265135 325.97929187879214 180.6932957027911 110.72452878428919 233.70058577976755 117.86801278571166 76.21653600877953 335.90275733601715 696.3704514898163 142.78857751120535 105.40173646449797 353.9678152242747 127.56449432298703 191.36476896054316 286.10633866565706 227.19026847652043 198.7901548463059 101.2044192953834 213.62964789965903 216.02905306722917 272.33098128453895 59.103662857103544 172.3051280332327 170.43120893409747 159.04940235540502 122.68980193836289 185.81091801321838 72.1052270869556 80.31327139727632 131.7810446029897 160.84412238308263 103.45745205560067 265.3130184223704 51.78887605425908 97.7818870695352 31.73952308423278 129.47699412776478 106.33309731552534 310.5714415648777 311.5298342245786 220.30447274527475 113.29213234854673 242.94118508238222 268.2052303197753 410.6764039874059 145.03967984222737 116.82014368609508 391.8656232519599 81.34833851282995 169.99361514621225 118.57221564262586 178.0429235316851 220.47138247256248 155.00537988607027 115.61529605229245 270.2367049256696 166.40438149762554 82.14270774887099 31.141318223645058 154.94991991817867 367.9560312261739 297.12328466449935 190.08184119493825 217.5247895532879 254.63024613864144 131.61546434724684 237.64634043920552 265.1096203258971 165.10682876279822 221.86342346713786 411.97224266362156 100.87821266333775 112.00998902981463 118.37538110624173 228.7466020920476 135.51681136081186 328.93927123506 111.35895733167455 101.98345333396385 298.18076722364134 353.81801766361417 633.0378795092523 101.10569311546665 459.917786625082 235.53018971248977 109.5560221540355 185.29602853551964 167.04049632052613 143.4906786562654 139.3874071802844 74.08324501922327 82.15471783812713 215.89732206864818 695.361180168641 138.32349162313463 289.06318711992486 71.67637134511993 106.86906299683281 340.9351489924666 296.662247493426 1166.8770631610626 198.81109625135798 67.8937283298034 178.17604144489152 312.0518297089961 172.46021249604706 146.79826030772907 219.5065760085713 229.35681168406185 36.39244930436266 107.77125310776516 126.7227498735869 195.6104361116321 125.59584796364045 198.46633888041364 139.88199265882716 307.4041119053198 86.38577132891379 291.860321690552 281.44253319970346 196.6698888297434 192.0852178939547 159.81751380744294 151.93333692718375 204.10480880091686 268.1558981974697 202.65930512236562 351.92423155444516 265.76619243961267 102.98453830083324 141.39559171192204 142.5728947978214 223.08835903600405 187.12511041551363 516.5266907883039 182.22055710557967 208.11307752376757 144.46679877266988 202.36704543295988 81.33935131500066 182.0208837729218 77.52863431250462 223.87009164703463 185.50468422508868 121.93628955406258 141.84957466226862 92.80128781160877 60.87587952194965 222.05491858966215 135.13059796647045 373.7194695469189 108.63264869530069 190.44402650030418 116.29780094278058 60.31152866944457 116.72714188481744 134.5535822170299 350.70701346070916 85.34982273952436 274.54194328387996 153.64104319840646 216.33441562825885 115.72712184306847 436.8273949629794 183.84249869735123 409.7916644468964 102.72365756248638 78.65828907533542 200.5622948918565 176.7283198667595 148.83572091224627 94.72699537387597 95.04455808540058 198.98869110346632 118.92372495197186 214.0786539499889 157.82016924860287 277.0171056603783 287.98618989622554 312.5125166333907 122.49037947240592 383.30617025366365 216.89173331161743 247.62250019059448 204.46401666798454 157.1423348151933 452.42270213617104 328.06947655084804 295.371658061101 242.2260895821155 375.97292551384237 108.40557799377989 103.41793280082506 96.61233617962594 200.40757022332673 512.9368735909445 168.99235130887183 43.02173375428156 31.604140959115963 288.2500260759491 149.20474551868924 209.397332376256 81.15406977652094 298.7089442219123 157.4368870402058 173.26703054774643 123.91741577921586 63.775958520699156 328.72744462431893 108.87970859755163 132.7297915032882 351.6897019122275 263.2956756284177 71.51667427356269 302.28718387502 189.76104198954684 198.9003089307248 275.2190197249174 120.57841427102655 99.8628270313754 304.3361568174193 298.9040077313315 158.42210012481456 138.42377921957862 131.968674210914 326.1901621515534 142.85501677587652 208.02751535622517 295.50850234490775 0.0 72.49382397489782 248.32059610748414 259.66920361424997 175.23477433008696 237.18315734166873 142.60213148282412 87.37944125881789 236.5922416589189 257.42193226550734 102.27353236940088 335.161681478759 134.52703425198092 128.54709652882258 140.15620143438161 266.19908188017666 106.83420096060739 226.70907579435985 176.43283089833244 301.4267729459147 252.05405417554724 97.36657419756558 104.18877166566864 258.1686224836602 102.98725614492318 377.6732674355412 112.58855519945452 278.2426006457006 57.13138188616488 109.8563221614701 213.01059551312485 514.3476681131419 204.9201886025595 236.63946015224312 307.0366666123887 181.67615051338043 343.9499142508833 283.9844214882807 557.0289383855752 80.65080777367423 366.9235023549368 334.2270181579609 418.7587373637717 251.72140819904965 79.44344610885632 280.08111404302775 577.7073819403746 147.27683703919362 150.9493751173809 178.82316400477745 106.26746383066842 74.10931638979261 319.5923102185459 280.5903655090994 174.5742318822531 35.52779690306995 244.9247757784646 141.4907820099599 134.75275798984933 172.72393768857046 273.0345969426548 159.66406667878613 118.50646552683075 148.69466908156073 99.94452019363858 661.5625045748724 121.33723928688292 181.78706994203768 166.78878905927712 133.5053685826042 219.3218194958156 127.86241428857416 110.6003948734144 131.03369585859252 114.28866460693443 134.6433111222357 281.9809318365066 234.1884972655193 96.22968959910453 316.3561722934031 97.82545204248753 185.9156864828963 517.122971116972 443.90041010715703 66.10647742861688 502.06448140738803 755.942534775132 329.79709916566554 185.8704214815207 362.6385602065503 141.06383352571459 130.36364488480103 106.74351414999816 291.928700942439 252.207884387412 54.64789727672861 100.51389594401921 148.44866713258057 426.31206701404585 74.52600151073231 314.7393314922509 343.77219622690706 204.4017013246115 200.5638618465845 381.48318610815994 376.9122497791903 187.66143502655277 145.39765849538887 290.03095047090244 349.2665059972371 643.8460436917737 364.18786786482923 147.12771969157063 347.7514359167867 128.480551388357 121.86880602676518 97.34885123036935 178.5046464517837 496.861293288242 188.1962216368385 154.07027772987274 111.24949677598292 329.7758649896391 179.03229016200916 757.5799300057564 169.52276958331353 320.28180745600326 81.70292007586573 61.102897576860315 112.88959465939044 123.09024572683396 335.00496201116204 107.71141173357776 129.7398599140116 305.2939886839393 548.0783283802922 307.8944971412515 348.6146804181466 174.99645458105448 184.16124964098302 471.8173587165154 269.5214022963832 166.15965253109042 401.9277139706384 275.85322301740723 89.4855051306492 123.78954110222149 351.3840778653024 220.26149830914895 399.1862358258589 179.16321621345273 172.23527783656266 91.14778062005628 129.27798955282643 173.0665660560038 117.9037810217928 201.15435951925886 77.57626484392061 111.54072268454105 401.9372672649333 374.3109374899811 173.60801389185835 177.51113363098108 294.7625312259958 152.17240373537237 208.75871114542022 267.21622621019947 153.08851258365524 191.87731415796713 77.21739150603284 230.4333091332405 90.66834337560113 266.2383481401701 263.5698812788698 241.93905293529198 180.27557721303953 226.1064247373074 452.0993864520395 235.89269533078462 183.70049744775454 239.3726193691376 274.3095156482569 184.56070250484507 202.32363650831496 56.01990176788569 101.61752133165051 40.592136880836996 299.08681478486926 260.87997745177097 336.2646677599273 129.20166756784764 51.297918206899645 266.89190453297755 272.6263454623563 202.08526783211923 327.5268243920743 150.48797607737856 100.6687495511568 95.37246993137607 229.64992067848644 25.307146278498394 241.86476432531038 152.7314330476076 98.3081213696305 393.55417430387325 508.79926279610345 227.39755315976734 178.56707391323695 143.37215043916882 222.78039295887686 105.20785101898288 102.71707126827987 500.6854959907331 188.79108960492303 164.7401499689842 552.6681342533115 132.36228803740994 183.70596167888135 114.14378076574619 148.18458484378178 189.11762846659502 168.6944671121205 581.066678884111 75.68029234590297 184.54005018864478 175.08729332887953 158.99173502163885 373.6600258195896 257.4003658705565 150.04760368566562 356.9764555747686 369.37880803186283 506.0077239149258 578.2573849584871 169.38526792237317 93.23422824853378 224.14660092336717 103.92638481355594 157.6769141921079 649.6410724853582 544.4313573833441 208.133670899529 127.96682085660096 112.08697843309326 135.94899455663324 248.8834831200809 546.4713551913949 240.8995249521385 117.22921695168864 104.4601169173205 525.7635728027793 88.24801979943776 62.681441795307336 124.4397647244614 158.59181669589347 124.00167701766479 828.369210433214 336.9040594784794 110.06438191600192 226.7002715883824 299.43460503300736 45.3002909312948 43.162527543958106 279.1313837994505 152.00140394170901 128.05522651198558 36.02962770568041 253.40896672796814 339.8653737136054 693.0001027771959 128.45652371422534 347.96789729433607 87.62625129308682
conv8_param_0 91.19944226703657
conv9/dw_param_0 222.69244903784337 156.28475088071733 158.93803367384524 402.3184044017545 130.718450656986 809.986380013883 336.7206948432678 247.95036678669072 142.8697202666661 108.3585407346938 337.2920238520953 357.8597795844358 138.56950888192947 307.46967550336876 59.89157967464638 198.49660557575626 147.39155246340368 168.0400581935626 222.36958324745024 276.1677171709971 380.70722885926114 136.2701147308144 230.95451357703203 169.60398992838557 213.12541643202303 131.33318790796486 90.84282341729657 279.1378015203512 173.63379067815822 275.4045174373433 148.66920855567884 306.07692107686694 188.2428262401244 189.40462945225542 353.71828176140116 323.126027035165 418.9002602808375 296.1970594881368 247.26370204877674 147.6255705256915 130.50777225430411 454.1959239731994 89.14627903374712 108.35185122090357 192.8388928997544 225.39158398172754 140.70379632316937 90.49452460299453 253.82559076486007 122.56698521216272 524.4577002647264 285.94758882506187 631.5071633034005 244.56726256633124 150.89265422613943 175.7925642453178 451.1835527183002 128.62985273323878 182.14823061484736 103.16073785922289 71.34275424053997 261.1718033854294 394.6062856237495 340.3554452154303 71.30207264296278 349.3571307121653 1028.0060144949039 68.61741848570281 466.2310999952955 173.4905590951909 202.8296330467276 333.4542445489113 30.6724398875544 69.29968571140871 275.0966950279524 294.61877901093317 228.1141802934867 62.8349253904235 108.19901123657584 256.51058200771564 207.36126189559755 140.08576402362286 108.61749729973648 240.77057561249015 229.17576373853842 314.4655458924307 213.63348197160238 163.9446210945546 344.47559573105053 290.47862053405123 114.74857723934078 214.14300713683915 197.26662734986553 105.48439115931882 362.9417032078604 88.91516366399976 103.66166476034607 231.22923704566176 206.114784509757 133.94749578283862 353.49220476306374 83.39937569060557 174.99593716952748 177.31048689294414 168.59279538781766 254.26863286003137 177.53438438282055 210.59703362218391 286.4942680141954 154.65150219887977 166.22318244310284 199.28174165001082 636.8717761023009 352.1521771448853 260.72191400412134 379.3595066329404 421.761921488227 182.18325731770486 497.4753167697846 45.915299059897485 74.1935512985904 408.6166577666991 183.21116271710957 195.34786447389726 370.69331410078695 286.27714962494 297.00849657518467 471.75708270038103 215.26944839984571 149.6985159538005 185.61934289365456 323.28178374779213 384.6297026489402 488.81942378579834 400.62880350135015 297.14808457768163 264.51938603928573 169.34750516596952 131.87143814507385 388.0026794265692 245.63974705880523 143.0008539622533 203.38067273774644 102.9098388502571 190.51614205216927 302.25307188741414 556.1181343567908 133.5403357093752 412.4500482919534 99.40744032142466 99.5086013243613 339.79223124109586 111.88974962335064 354.7770935273648 304.53951197787 285.6630907159575 100.20486898160048 162.58756268037993 264.59934059614335 134.27948387475715 97.61882764480617 234.69685534480354 154.41812885246958 99.11048904624711 136.76058760083873 103.49094904998636 66.95101143891985 332.60708516359426 147.13170225969776 221.07228835533485 348.4389480207421 377.2757402444804 310.1543746635195 260.0062895779429 328.95587771221426 318.84526376969825 52.31284672163669 404.79256690090307 383.98890441756214 197.63928411885445 224.63394508392938 181.88059477258977 239.73540546068958 207.82876529875819 111.45411490781511 160.41092778548742 127.97489880872048 121.40733116414846 527.0205249103141 60.76558046226077 749.9485001955203 246.87304342667602 229.22993219410478 68.15661252774062 195.25647708966733 146.5046961877746 520.2871403974995 106.33962478850172 125.27626204561108 218.96435342612358 266.8518604053501 229.99071512572706 102.94611557508618 398.50269372382127 222.23139927134355 335.98559872336267 208.89157915655193 273.9954845598153 520.2319445670328 218.6281713148228 149.83203855974625 41.59233474343812 213.80821740759097 445.87229470883204 163.30310688070625 118.68814495785517 256.598143194627 336.4629167490109 90.55442977571282 161.7189067176102 219.88156255269473 126.9554447139218 215.27412455672527 245.329596041578 111.45399830792554 311.29936917032256 443.41505184259034 129.3610222276621 373.83667560594535 178.82988785879908 193.09960608959298 251.78729585845596 429.78756108952746 244.83305589041368 474.4023831595344 528.0494754619876 132.30390924054979 318.4619935881824 365.4933015968477 174.67040310072434 333.2122800716841 75.39114258829144 144.51535020771772 188.26729333293514 457.9308949183192 300.33233962866 163.7570687703831 425.44135029050204 78.03312840009094 295.3092077789979 64.07930351507918 248.897845306023 251.51166019268376 218.92304734783548 113.17855173323024 95.53686886087682 302.45904007623415 222.33667997357472 134.6219840378626 526.3320371454867 225.3147181449021 526.6910603626994 529.0439278692855 208.44648717319848 298.8771740138254 204.29900416641377 96.85624462012393 65.8560313056751 367.52270179340775 280.29850075550263 258.1282604161865 240.15152166136068 120.6118183715014 448.3503666468904 264.40773095245066 103.26780434903142 124.66307849648835 280.8297695264045 52.03546616476498 623.2841220114403 459.4838713712135 230.67929330739756 450.6800012437182 141.76803925819084 289.2908379721625 161.7800068851395 492.9608475930317 142.342227841874 374.9478228957157 206.07188557188766 242.61730665655526 453.36986438947605 223.68818169468352 193.16460562791136 310.9272771355902 190.88097768893257 310.46582001225715 539.1970846447916 498.0651865710979 293.96224886029097 190.44423076476173 423.04292005352795 244.9192858498416 441.33531378168766 410.5887194717456 368.20398442616073 186.69145761454303 176.79504109121882 88.25776508170995 328.6902230110229 363.7936720546623 156.69043272005814 198.47364123932056 280.4919081547441 265.34136673367533 160.2564842118469 193.78995713204827 484.84390801623846 139.5161332926055 127.64319106175667 136.13124886035865 113.70117923994671 236.51269341267462 231.0386332252438 177.3717273799702 121.74534495591138 333.3323058212595 290.95967543489513 227.39667948701802 182.01049724243012 485.13054040879075 144.66695617623583 104.9412844770505 229.40454503220127 221.16524700742227 170.98966032088052 583.2813306942901 106.10933506345425 134.88235176074207 177.2034287890872 142.22128810033195 495.05893592971097 291.58636654815035 245.80983372497968 190.81174691849407 79.87667950642832 228.67889231614623 162.69759634822998 307.8008480930042 35.114284844135696 120.64727671601221 281.8698618964875 393.92354057195 119.11358516889123 351.241119698646 196.97362380730644 134.8245275492497 126.6143432754242 149.98914044451615 327.2632205448247 769.6999976248359 246.45627574426229 148.93764601360405 76.91284087172195 195.26816202873724 761.1703998240243 237.2245107725455 298.35659071037975 547.5304943396279 272.6028015684177 165.52673123953176 117.94974283302614 409.1557186429713 193.96135695527377 157.98311564719162 156.7115109174057 163.83939527782255 218.11492155635742 236.15485070263807 47.80241113494207 424.27553473599846 117.02696450864697 215.39148646667846 463.9462227266116 165.08034942353763 228.65781177914172 228.9128303175204 78.62152104417271 253.40405426234156 478.3277530842192 175.86969949293683 187.40056942089643 155.03978049570958 301.1084652813392 297.98077025006563 155.52007992687578 216.90957391196616 548.3025804330271 216.68190720180675 421.70503378558243 118.16192310486471 189.15421166245338 247.77819923577047 234.40692399900723 206.51146727859086 218.32194084309907 93.67299794629595 283.4977306079828 234.63017662895805 311.79768551609953 129.6758309982179 101.43411862695551 336.33526401536085 614.8772848518569 172.1217859542358 322.54992636038014 406.5025389876959 337.7801854559333 143.12831538676133 1051.9400597901235 138.42751135671284 95.22602210459823 419.3938268769082 158.36757041527008 79.33505280659516 198.64024390528132 369.8935688154987 225.82240536859433 138.0819883227849 331.2012287377715 116.43950268290406 200.79220016020355 334.28614066740926 183.80537237663847 568.8472966519552 93.21126525194089 152.1207984136705 103.31166699249964 209.28188761929533 264.56323351990034 186.74036393007745 95.29418169214084 179.56375855215433 322.6852370775986 82.55555743256595 262.9802110673025 55.86952116133995 117.4174149774727 443.02588908479987 123.72000563929726 127.56735071186522 423.3051419489421 111.23272402882698 317.5959240165933 414.04608923213306 558.6470624710363 364.28285237724316 90.2431560977837 119.09206766613453 196.67137739976062 87.94920879385415 103.82259297933933 592.7253955512765 253.82843313028232 161.35840481109682 299.8822939863627 340.2804070097201 127.6891946394072 168.14604000185926 190.77332415537373 363.08512741724087 89.72864408287134 179.66209866317536 187.6350101020722 128.4833404819953 456.1008158072802 301.3419600759526 103.93161635393948 122.81020344690606 324.6030502265603 147.79297088292353 165.4385258398016 358.58918076074804 363.332195156222 30.591790082518187 64.47765576207657 318.3283935834022 199.96133785903214 265.86629163249296 373.92544047150227 153.22245709341897 170.923285542021 190.87829299223375 129.69085146927233 134.24376494817483 446.5383546723967 271.9280918470188 102.56045773200124 348.5823141021955 348.6707011783126 194.7129504602475 118.46889476700113 518.382691271949 179.64893498443138 139.94732579050591 251.8976121521463 232.50509290136497 158.44798278561228 239.3488221932428 170.3711654209707 64.59735935935815 192.55425672220812
conv9_param_0 68.28979348385225
conv10/dw_param_0 83.63027014925291 222.0003404960448 305.29967543648934 319.036850913498 253.96427561697627 523.2642291579498 237.63658675616387 329.5314861149303 365.3535131368343 123.51004864566572 198.3306128850748 510.8091553879901 217.0196189950821 214.27551441757 178.49536011478892 177.58811217580495 332.9223598088128 217.68846868624124 187.5217102787321 173.8935412704351 89.07316828461323 229.84081756506248 585.7600106666447 138.91114850689382 217.57956631061143 235.10921693319727 307.7700148670076 272.71588426677795 338.8741453819293 305.94395342521005 310.7957068108572 146.86288615751687 148.07896371864373 246.6087700883342 156.38998599195628 224.28432096592599 214.320905635113 108.20564892012032 102.8264636017038 102.73731814893824 246.16001380811753 90.08568460051451 186.17418850815832 250.09166189146052 262.64486064714947 355.8953106044523 337.3388030596143 159.191036137982 223.79082810128756 309.35621984595394 453.7499759357993 259.5159539651974 180.13749250415722 315.5903381095845 314.7985502201677 334.9024412344812 250.64471762588045 390.30439547697426 490.85790723580703 112.88506113480852 344.9952335199576 105.39074647604619 397.0498045643912 92.7959204933817 308.41756256629503 105.07257476492505 323.0549886994775 88.40058658613623 200.97079457124883 157.88041730038714 321.096978620223 138.86550166941808 97.436559282973 229.36216927494883 259.6553750980316 350.47168161338533 175.50729147524112 339.6803968957447 408.86965105238477 593.8801105532905 670.9478466132895 202.44628253708217 340.4626379055675 155.2474214703031 124.99088878009097 240.04024489506227 280.8860231315342 450.9894522506543 272.75042790338415 294.6249509121219 32.42638792343725 151.98670150692288 267.08788615248693 403.254992860684 165.02880943385384 313.76426253950666 387.70901040881006 436.0106490475814 179.2097344731555 247.49556914923087 132.02698653944725 329.80603262898205 198.10930929635379 222.15407918991735 225.16454620715075 301.29172153754894 444.41672426003856 204.1605265863499 215.13529664187206 159.44285281441938 137.85767426970332 96.84135654755492 318.7953399793839 290.04441340168034 387.8802368088441 433.29776223032474 416.86895363802023 253.9016610983719 378.1263488689962 467.4629034850091 536.2263594714058 193.8507309297747 293.13879296438756 767.3326347399466 458.78686198765195 55.89821398045607 375.9785315089068 357.0600860246263 245.20082792862027 216.90546678104891 133.13991946643216 144.692606859619 405.20942371984626 310.0316224898038 81.46040092909001 155.6698581557952 151.8591396874649 621.8640372971367 80.01599609080584 324.25029910923126 138.5345969394655 309.38654062982124 183.0821999390444 258.38362497658795 250.73072387613678 406.16665993123763 176.0536982402285 760.668903231887 161.46019776029686 108.53686070188962 248.5905252609656 0.0 203.59306048550306 275.50712961603483 530.013456012741 125.86790118876785 257.47104933666697 289.39781097641145 198.25002633152866 235.01293102164635 231.73603032495043 63.21039710142623 147.9106790743639 284.1891290483774 97.51937278028188 280.2779635520044 115.92613872726574 359.42957566621715 168.5475050662188 444.82918314476814 316.4035730463935 95.67897298023541 438.9909012729812 607.9544385076786 58.305398855119336 243.79397428975068 176.71795693525692 140.91285967655813 277.50088100109963 123.95421009055315 202.4533228535922 301.07361903895253 257.44474650945756 171.7105372185717 704.7295428698153 131.5254293869157 195.55381265456134 287.1684439936631 114.1049528908143 116.2641803184495 338.91077139545735 162.93272451873548 201.1899539220025 117.22941044683819 212.11930930967702 120.89871796792265 270.56663481684427 218.58021993984778 250.59878922114433 530.6416635504918 116.368303613365 208.41400735095613 270.6698505349769 136.11293449069757 97.22343591066148 267.7257761017865 221.35951671110223 114.39528431064312 576.9532635284362 156.51265212962562 196.8506969530224 372.4219848037537 273.2229415277485 308.40213913805576 94.62252543103146 204.74320473124786 353.405576997508 460.29717821204673 112.2959819483713 210.5488366191613 230.037570278549 212.10051664690872 117.21564808499575 119.32048802811491 389.2756022567942 100.31238274875155 272.0112863853254 423.44689381465736 146.43494035579315 240.67063080545407 177.90972213118621 506.82293648141257 197.56720848586014 318.5958010584789 126.58732324495557 295.77029515723586 124.00336572065426 231.37961997692616 164.4941541716362 365.1953030544543 353.99560210761905 557.1629443699046 544.4465557254009 207.20300630651036 228.38450973099222 385.0248659861997 240.0698599268086 163.6318993000643 125.22910986451177 531.5791628183615 174.1140091527455 559.9467864257662 421.83682129185576 512.858165792028 219.2740598448528 170.4909264485944 143.5872312540619 250.48648591457152 219.5841910165428 402.55114520892465 225.23652374632948 108.27286284841885 381.1956167019603 279.54381400152505 229.88106380008315 106.39103407958127 301.3334153593592 544.0104885171099 390.2805886777025 466.1467459743087 253.3412336909175 107.26696813626383 286.96048618423504 339.62027134951353 161.61650545013174 285.05303332329066 117.65380630753255 497.4447131104197 368.4285717249951 414.23827387177664 104.27580056039693 123.97056692668193 316.3050527156177 344.5075380906285 431.3223738873725 300.21482647030956 397.8756436492558 224.05510138391753 342.07770793375624 265.7039192862092 388.7675105415944 344.9712432276304 128.3817097798827 861.5033290814921 286.66984302764524 109.83696587574187 317.9392952205245 205.42968602818178 106.9232498427545 177.80649451135614 598.1631340655362 241.2229813132286 458.02731603294984 235.37459897401862 240.523977877776 252.0022429042606 266.84173428694913 710.7382061578223 492.32253024411335 344.25141409319707 128.67303469547664 446.4210800122568 112.02592503523441 278.5984647514905 134.09949237198546 478.25147103351793 135.95177902514186 276.8912166607776 238.40514766484054 137.246063471169 293.88253657917596 329.44081922857396 154.0218864100149 287.92139568282715 111.0836297101178 114.63612954903434 80.26766425757664 285.82348015295474 201.86765453648505 251.4969650957685 223.52485601064674 117.27856599906099 174.232267175507 109.48755498127048 112.52618175899433 280.1959369410473 420.9812352038592 214.52013429542072 501.9734047014366 475.5432383823187 135.9946186963538 159.12173847909293 220.97555762791177 390.7719684544334 245.56512158300802 80.59336509096465 197.04612337637656 206.06046614185414 439.7126206964369 186.18730087076185 440.18381022179045 347.70572470853193 328.4588420669922 249.13107011801858 173.41862961524166 335.3486031616823 401.2881848605746 494.10412261592637 149.31418708947393 175.28161064779715 217.74517483892456 569.3091618366024 133.74571305074764 61.63552815358485 157.9688963762903 630.0334759161582 584.9968627245871 133.65135774553605 475.95438696737307 207.6984399707798 247.53173971872755 238.89706423337057 525.0995850809029 143.5789198183527 405.9602319455462 139.34823599151264 122.1063614431373 334.7080769070661 223.33709197892398 142.99666961781946 434.48279116269526 291.16024239184406 181.6685758563558 196.7182062441108 468.20645233876184 481.45524634257697 213.82712078792352 265.2595266625044 455.1944840174493 146.45122553812433 65.85174485735493 348.63609967261164 459.8838869535563 118.20858484551322 122.76902000805742 568.1282360240796 231.59031886478806 324.7108413501176 270.73349305125396 171.24824313753288 391.7927386444899 124.19127181690227 298.9821464403313 697.4690617494924 128.52275712119302 425.24728902428427 80.08161677857964 569.6704745512909 498.18379435712166 402.2609067655032 612.162196203899 110.36132812338138 57.370469787526076 349.4247075009813 103.30189982417349 253.4450173944808 198.10827778997853 205.14625371162725 455.17926557569524 583.4729617769816 158.98869793522007 554.4181504198488 512.8087311277353 293.3271519185564 45.657633623871035 376.6387180852592 178.30906012655078 113.20700673119275 116.310320041015 180.77523742215138 109.92526280968268 238.0199410219042 277.71100351748396 173.8330193138695 107.11439271847534 156.9417691593671 58.47046189961277 218.9619007237323 139.25460431897764 144.4446650543942 216.32169874611563 211.7945387451527 59.863539300897564 169.00503174535817 183.05920345473695 117.24540825512594 89.7641700531927 99.85045355503469 303.72719800638555 385.3646573729322 313.20250052642467 250.8531692206551 373.9426997328337 307.2251964562004 297.2347406614838 118.16994436096414 196.33900614079326 253.060443934638 429.3828694345089 125.28352504569274 306.14321732173124 203.08389130321856 159.80944669211868 249.61298588104086 290.6621280204089 523.9988593892273 254.92926347476617 392.7510818732476 181.2151877719453 144.75996476093684 332.20290805684334 207.79424852378466 125.12737219804679 69.42414502372411 195.41558745286588 245.5988333197319 226.96967603950137 473.88622383522414 309.4044439126453 152.9575031828661 292.73820364224196 371.13955489689965 133.9681127051524 144.91153275227433 215.71498534788708 196.81034927242646 172.8665508655471 119.7247239827222 242.08639187041197 292.0164412421303 94.86462906826537 392.2811108111166 303.646559720658 338.85436685379113 208.89440535862974 159.97724961743953 541.251245544731 387.70259059588875 94.29877330089232 295.0373014671301 168.3520732400024 429.70183880653485 157.09550422291966 164.8032489353798 383.2148606414688 39.72971627619772 114.38549518779253 257.6297424278643 488.9720423671986 326.9352649568558 309.7549969957912 383.716065015968
conv10_param_0 83.74299158131382
conv11/dw_param_0 316.13797859550414 497.3179251679642 350.2546858566707 296.4339868393557 277.10726380520174 131.6327997773981 392.43395656846485 279.0553992119233 385.2339483250727 649.1954190530527 204.05406540129968 114.06113212839774 320.4972034232795 245.21871919957684 116.65495204169366 281.1916185698083 431.89788048989766 539.2703337799188 306.95704760852414 394.7174365581677 362.6396094457913 556.5177955802977 203.11159426534394 789.934101113447 192.20188181735276 92.6969466787298 257.3675645132184 711.8588714897658 561.4317010595354 244.94395022917658 356.10670634129417 240.125620921824 673.3293953989876 134.98479023064547 120.39064785533864 561.487588979782 322.97235409255984 703.9007227786866 167.35604960799435 57.61202830175925 99.18650423348713 473.82921140375623 107.76229228371312 327.8480483429391 341.93398930261935 121.09315250325677 438.4025283118251 581.6554902084966 377.8413370864951 588.1830773997953 341.2704348209793 240.95313793951593 246.47258300104306 350.89131130389643 562.0047188788056 93.31711958202185 72.36891480716444 183.6146645860457 449.3934897723585 879.724432840703 1059.4758399948685 99.30867870497809 865.5457633039887 263.9358444716868 143.1053980466612 195.77618605398195 382.1586819143461 239.02677592140353 498.3919748538184 106.9671694565299 299.3440332310633 559.1807259459782 410.04552344105423 258.82844519305695 477.8076286858177 758.0811365312209 337.2723494888892 466.78832701899256 868.9686832494934 256.3503958969623 435.17824127616495 81.56935613884214 646.8130829063911 599.330472221312 221.5301715551419 241.92671869129475 346.0955469022455 130.79555599698915 498.0974385708174 863.373468374742 340.3861386083254 22.310503301320452 93.81281258918618 387.97894063878215 119.89054032900336 487.0079266832088 487.633588645795 1045.1643638877354 202.71587572480198 323.2511058956321 219.39844540293325 232.44614513881706 199.81576455065033 293.27726923582765 259.7660761548641 143.61372977352278 361.1237380219336 494.5918601154431 179.7185471140023 118.63982234649227 236.81086096887103 321.26192545786887 319.8456891440134 709.2249499837648 699.656381324219 659.9167687249889 149.87386858126493 164.96201263112647 209.01155519351977 135.81194204499263 395.4132483730335 732.6399740600775 117.5036660569899 238.2449641034678 242.91764242339116 263.5562536037563 116.27983960230418 453.51586694126854 112.47571525354442 224.71262214170406 285.1646610489563 228.02104846130936 196.64124732211275 1071.7322332354822 77.36865984319776 119.73823402738253 253.97017852951865 224.94896058944536 117.7690654369978 229.24302818506925 339.49605406936746 267.6289950088668 350.81118061345586 466.39847036998526 106.08064932891135 193.56484298193067 157.87624102006106 328.9169795487644 277.7382257016773 457.2902030586005 76.63275917382029 108.5452983068676 151.561952779564 580.7688416426384 335.94623867326 112.53047254944998 488.817293072578 232.7838758950058 123.45105415421654 237.2042547682008 159.8490828755013 252.06493784577935 270.40427163091215 117.75805261586562 601.1277796821286 216.51395117105375 226.83614956938843 427.14640460467524 562.6163421374063 557.455906285318 155.63394964639346 407.2969983657131 410.7102453459597 136.5691870155124 361.66683179572635 158.4601907436384 155.9630093486758 228.60626795788173 560.7601049089586 435.69547826467476 256.50794173614315 264.10899300368004 40.85621952235318 318.59494357094553 302.39269888536404 1055.3722963503408 86.61887128719312 335.57005584522784 323.18817444585346 350.08184056364536 432.7960009908352 395.7046355264321 405.33942903756383 666.1204826584338 622.0960758460329 192.31490339876552 173.94642250835585 253.56834840592902 375.35378039588807 501.2058901570395 162.52464860739292 141.17167111121654 303.0538671751353 126.52409092890267 131.4163778469428 413.1111012876262 616.2204221344423 152.85488342509836 195.33704747940152 358.0968357676265 271.1952757917931 322.6456335117366 341.96461133561036 358.8997343422315 406.88096557314674 157.45152263520453 127.27734831434633 341.5941678907742 199.7454822568106 189.81085979953176 410.5712345300407 383.0773062484993 177.8787249272066 107.8538456484367 356.52046844978236 298.28019831156587 97.17885406924448 578.4350110259854 240.7858125860976 104.7771711458891 293.72058953474505 337.2722160207222 323.8631868743619 235.29443818059542 275.3117818020844 90.3573373184812 262.1382270247739 281.3252007573457 192.8228376409821 214.2950608894038 608.4333693298908 357.4122358678795 221.16219380359524 244.5890764393944 480.95023036762547 99.79727878883087 161.60661320752928 377.1078061894377 371.52664645511084 157.0186106323099 372.9403399650655 376.58835907689735 1044.8654293570771 182.5104383629325 84.45868996710533 290.87681778691285 293.15867676274934 667.2503741665561 332.19467294311636 482.49889424368126 599.3047646933576 305.47177799536024 500.8778752141542 201.40148163439923 956.8420633812209 141.09979845311858 208.3490780627574 182.0315203110152 954.7164920200626 250.90542494350612 675.164507120624 163.24191410239015 197.7284755521129 403.7570366631013 245.39480803877197 343.210369506156 149.42163070562813 217.29432333934076 288.9889901182936 249.77345345367874 505.02144432568394 923.9353281912927 76.07183170006874 180.02042360054122 285.33585845498607 154.94951425979195 189.0419550855699 545.8946275645338 668.9334102927278 97.66873863544895 220.65575083156014 501.64332177424916 368.36083243730025 128.48733839405602 456.8338514427197 416.7439193897215 146.08440083568226 139.0312300249651 162.6684067178864 632.2526925999181 1057.8014392996597 41.6340660557724 129.14328758166212 62.400753668328534 204.7763806770565 195.99985907407066 361.26820951085244 318.8437846749238 262.63153887479234 348.1623826934716 907.4756018976562 242.75131207445733 81.96008259452672 161.83229054470715 182.51509721745623 71.27219265611296 84.1635812441747 547.7056862626525 155.83113885399698 209.30491292855461 623.4721567866658 249.98966723445176 230.38928199467836 416.4572396241244 275.8603480462292 274.07347982098776 224.7953623528461 105.40278970517582 77.25198377506575 547.5969829956833 331.95122246468094 355.54056528393056 52.47665912632525 249.5302869736027 424.3302026620182 183.90403357716562 244.6939327640937 211.91955972742852 213.66085995955225 811.2193007704409 85.74899376936258 194.83477106640603 176.19286076654868 312.19825723655043 300.70412451853895 434.07058397871435 244.8177806089093 351.40279615640026 906.4188944824091 175.80416793319213 386.911866638472 586.2306058115261 524.4020677726159 210.6208489199573 421.38052918130956 188.49330300983272 410.80724855604785 346.2396631961284 205.74997672802613 96.62878405284758 345.00442276944597 303.589126193285 323.76009004536076 198.65676397341045 134.73036537067622 447.6649265348083 104.84396822027372 222.46537837532793 354.5890168933939 331.0319376418314 143.7876352049806 194.33122488497446 472.7079340682355 149.54204296539706 523.4203123414752 120.71930927483194 125.70733730515481 68.60169301783239 226.32553388743816 787.5103213732435 345.25347292072587 583.2963004584202 137.58442538932846 628.1168885829923 376.4110947219487 393.7219094022881 238.78617063874745 561.0865596579929 304.717796090537 295.6049491169649 391.8601100228491 803.9856285219898 451.58737708258735 196.6239357797361 314.9454260068575 1064.850406948469 167.12668253713022 234.51554168446964 81.6549454150965 575.6192036652355 243.17100700933432 381.2895486053232 206.77071179877262 795.9734229284819 382.55362382149036 373.665759643869 533.0772822122427 262.1331476618863 111.74218328893272 275.24970234767636 329.4641499106064 964.6062432566442 226.13550917482067 1166.7130132571042 327.6378762819003 117.09548416283823 199.99585423089871 41.58283118057726 229.81441595474783 299.31081347129185 410.231562859706 673.4376115998939 556.5595160268974 403.4457293096937 694.5326723878705 296.95981660936525 482.7089325123659 298.8694602117118 64.75954280210811 247.28663099878915 307.6191390010717 308.0608752013841 133.98684861456056 390.4920560754943 378.9667140099429 194.27271788143355 183.7560259970828 438.33714066471435 344.32537623659493 257.31713513553007 767.6233854405625 979.5058914065132 232.65376175767656 544.857127459347 439.2903899254835 253.86977557607844 251.16552048996166 272.8870648374097 27.431118605377147 209.63514248495653 257.5702426818848 229.85524805078873 231.84952753198027 201.68799783498665 110.28962453502196 314.29595815909886 108.0095438642025 551.8168943073903 104.28410924842154 218.87494406671644 185.33019692763526 168.86879662463147 301.6185504403728 200.01558590487184 254.18840031372912 344.26292773513666 553.5483204047097 382.54723623607475 220.83266858482102 160.03487693755443 219.1021755288278 292.92244376894513 294.2449959547822 274.9480087621267 482.6789158502923 60.5250707169985 390.8008168147106 342.7442981954866 241.3071785696044 362.05076953610336 454.3586390094513 162.31464324747756 267.5934846891199 522.8151060892244 39.29138507956431 160.49377972669967 599.4017483928243 154.42385891063634 324.5700445465596 218.85412610733772 391.901733332708 231.17677836434052 323.852972683775 73.37401079514501 271.1445789127348 112.09552886076311 209.9759545884885 381.18364831383946 870.0100720296914 861.2842855100079 336.04505359008965 403.09005744777437 205.42703202172294 150.03808379968206 290.500877928442 273.3354699455364 268.3399354346368 156.71916454749143 99.04550082742976 54.60945889255724 403.5746434212768 248.38257258847153
conv11_param_0 140.12332367285225
conv12/dw_param_0 98.08800244687556 48.94900735838716 107.77192904544616 86.08103802098323 130.10703416088575 41.2687412628371 173.66901623527755 147.7548454455835 133.9029064516283 155.6050347610827 274.24024528770457 172.03152510367318 33.56566354675656 48.125551498589054 318.9988780352112 160.35002452617226 32.34400228306343 97.65115612716876 158.27922043095023 114.82186643196883 181.2908471754338 255.23893578131336 315.6282284876614 241.44004119210533 55.06729297479199 69.39625641108151 336.3988525497723 77.72888718777027 354.28148674067256 96.83680563761483 204.38272201434214 286.311001581579 101.92965071822705 74.47639765599467 45.933397184737714 120.60776302511229 337.98424690747805 314.9445415037252 206.83825495322588 55.29197176591339 219.7781175014624 51.92129489422728 61.06087912040044 167.99362056657682 143.45831402955056 152.83412823768228 220.569224852705 108.89515585396451 47.94095991970549 164.47619942325818 110.66383516576205 218.45405004609594 262.86745145858794 179.68338579248172 229.87491312422443 905.9801041723028 301.9440353018517 124.69074261080688 65.15688680252113 161.49896784833348 545.0974018091489 181.94071433566734 163.20814072732074 192.5939747653573 295.03431918512786 94.11104495585403 1260.329311277982 2581.5888266987117 204.24775301309342 158.68722869198237 151.95688251629625 585.2031638557733 178.8665928044253 42.75671029696149 163.79861203254652 468.45582348720524 122.09977000133405 113.69901926820891 508.4854144094695 292.5246338716611 122.38662983954745 466.0253175631326 206.44003694148387 202.92563964907598 246.03929342005364 81.85108165107658 100.74552656128617 154.4236798398817 184.22521215621614 218.6141291176889 184.7973988459109 6.214689029298313 44.22354001115143 365.47051326351044 126.5853227770432 223.12840133124743 77.92061286002564 218.00815735011255 148.60420654576293 176.57503736887332 187.05846184802877 70.85538428795658 81.42270342583453 183.21443952776613 106.85640372190358 222.423832254918 552.2975658427266 425.7396436202087 86.25821486881965 337.5903835434731 174.72924568561854 319.0832904161339 492.8122831940116 245.91832240052122 202.14669637206265 147.17760879070477 157.2229111910542 186.40295969248285 114.88760449148948 213.4932958778494 50.12716390505026 388.5193635026482 160.28125766584344 81.68356938064206 99.31489069102484 150.07964840319244 99.43071836668867 160.69123130198722 73.25791411380436 127.40090864730085 149.0853763269622 233.96546738543088 104.86260574446713 447.59030622357034 114.21702165662265 447.8535865592623 369.4615923751764 361.50063487646884 75.32272269026627 185.65854841018748 126.99648771463039 430.4467873457471 76.6892636146877 345.8531119665838 127.01073486936359 338.36121709624956 150.97713107612563 129.3918324104216 82.53492479184078 206.60860775774339 102.29655146388723 95.1428331322005 207.78796660969508 183.30899762534392 467.20418967332097 53.44511997636954 384.1955465943657 198.67788106534735 475.903253473612 410.4284438554384 155.84004030311004 121.48614804376932 87.92386947378463 252.46069725957685 93.40892908982968 71.84802295622885 117.4964088348739 156.7988689498187 197.24737951625428 391.96452738174025 108.68558991658672 154.38713571462833 122.77991465649042 203.7498418115369 200.84387087287217 49.39705570604169 182.3336871830168 116.82428139329875 158.29564771119092 106.25945081379722 199.749695553021 227.6536828136786 221.17548618599403 195.5797864352651 262.0079995386253 88.90992479963093 222.52420579191988 215.0173891395304 73.45064598246829 120.68283794066208 761.0362992181248 183.63504697947243 205.13250747859627 140.51741353509604 436.62938623499633 147.14649654344552 95.75667281373485 134.20165761567702 237.29264597707933 345.5857913691235 582.80720701697 142.8504961805525 180.01207387611706 119.62928519654527 342.72359675482414 166.3132393119069 227.60862032332568 336.61589827964946 336.5709408746142 133.34253062544573 34.94696566714962 203.44364903875623 128.15335773173751 126.00167284205267 101.35368538240435 275.46408479929465 289.6211077651103 76.27851170608672 422.4450610934567 239.41777978687196 112.50936644116634 490.77661577526385 96.01988620053247 300.8197701538896 174.76665166741827 554.7283785263203 266.3313627388586 85.71726398496253 306.42814499571716 157.55414124267966 190.6066404122251 337.8785821194154 219.3260637981947 146.53958895312027 56.806180254874405 158.33207740094522 219.28994732508136 127.22849570537201 106.42557554649645 82.96576752506857 209.23807129569107 191.88820067192637 69.25669854278911 108.98702839863874 34.9780278171255 190.09408518066422 566.2375801555149 92.47468452934056 108.77471006601304 109.99287048880629 156.66736729397886 115.72221928335755 108.60945814406891 52.74052975322249 159.5397696994556 140.53935182314746 138.93263336240605 66.81720008208578 145.5919587727346 100.6841431671553 357.80842822958414 307.2341893361205 232.9986699421469 155.36540086332647 154.30263357236277 191.1348427262006 218.68337058955143 58.7476601644367 97.85155394154532 107.88273379196816 146.2123941512474 70.04345764785003 188.50505968276713 120.12910736342353 373.9057550462296 64.58384516995106 152.56694211502955 104.73876891837381 245.5421428998639 109.11243734644188 172.810049181817 283.84839714463254 206.81470518292178 140.4984744484708 169.2686951891276 79.90214639760046 486.81098119065103 195.16254736961855 179.86338392853298 107.48612234100405 218.9326525449521 167.9973955633273 99.83835447470996 143.52796921032237 781.8829285495027 99.87550319626895 87.86068282805724 60.15131062102886 372.15717187253426 144.36381713122515 168.99343698000195 165.20611872551854 98.99791717968995 466.0502913707791 50.339554877485796 248.28034678275344 154.91239424100172 210.91999744604144 224.32713191989524 393.5580270070461 537.6326400844586 71.17775671585011 111.82466164311798 532.7699426343253 105.62060491320963 89.0505713939183 448.58035221041 315.4702990281332 224.7836707135412 168.6676791288171 132.54524496379977 109.83115692318223 252.62338066376424 256.1561144599732 169.8629590250197 102.10053386146053 341.7137875411725 270.0641255551669 112.27867919316417 112.93475839073517 90.41024717094898 107.28756838573659 353.1092532342701 637.5507592193161 165.36304183260222 154.8430573297658 174.63515664661514 201.64388738941653 19.070470397907606 231.4042713926125 176.11074006953157 98.31548808253031 285.06218610074853 98.46494742559788 99.25350854294035 94.5024142462037 143.94698454035537 103.29938570333448 306.3338882656015 114.64175471785418 306.5571894256433 161.1605545927367 123.80920690991235 341.2649141983282 122.7742690063871 178.85950584995658 100.48055431031369 199.15005439760725 93.27772170323108 88.09350195482062 151.48440203086741 69.86092226499922 268.70493954913775 107.69260790304773 90.86626165975615 171.02237972825446 127.72360041714005 840.9241265305393 322.3056533559992 243.7989117587223 0.0 146.26155388651478 179.57793892480615 234.02189828562754 217.0403104786546 207.47433424523612 237.66797102750624 266.2225471087353 277.869597040744 228.82617178417613 189.56501708144066 326.17048835720146 298.7074366669807 223.79315512420393 91.35166929483601 263.50868189662356 317.6788612916327 87.25881885980625 207.8440917468869 349.1847121242377 291.8086586257808 309.81170159059553 203.35215883619583 372.6219334572721 172.22210805625545 100.65297074879594 130.38117068316603 82.97960297649239 128.21711839891742 47.05142008870293 65.01584524157889 190.3115002301291 298.292830220905 164.79139507981574 69.85644218250184 201.3363766308391 187.05048100368384 52.81046999912359 197.69778226940076 90.90028217526232 144.92612048223583 164.1356506533399 73.95504177352173 429.48387349060266 389.5397070334585 424.0540921583964 147.86724896405798 53.971535983684824 146.74415072363237 209.9810864840174 137.09833898338675 149.41462085006123 318.74581328555826 44.54848069377918 234.90698584608927 152.99131929286014 183.4147837017084 140.58692220282222 535.7492302886862 297.71080850309914 432.4681659270632 74.18714993446885 111.23901902381438 284.5246007810882 304.8415874377088 105.31023708101287 243.9607873176039 165.64880320714147 318.9754301185132 233.6130569426681 63.51462441647773 107.89269805569914 107.57786949102447 171.0214600101391 108.47158274055195 309.5483968820651 96.35711910856254 100.27031217117066 234.8906711633133 346.5345119732297 254.76635441830328 190.19672871897663 111.71103927391137 373.3796764099303 47.90947903731087 113.17387474477927 196.13568052303182 138.52146559389948 204.25760173521135 203.70050160631035 273.3450429051127 296.67788219945044 185.35775033942716 116.63774856268373 309.55925778354236 245.00873195283916 117.01546025100006 369.06641945682776 129.5778689671093 53.30556105390933 233.46865993754756 394.3820544953394 561.2947099180426 628.4053218311352 629.4409602143526 117.23197754293918 51.86909873020779 288.6481348268699 401.4693867091744 135.23640956572405 216.7516056680979 145.63908942180288 72.72780257364235 123.80914935637101 152.92607277240847 136.24629152487577 320.33198121883345 23.31459452664655 681.9000853132616 239.12171008036316 145.4574719599091 222.96026888674024 1412.8650312484458 91.4184805073322 529.407812549402 320.57194423957714 19.840346839540153 279.88900786430963 196.6425902735536 97.01283295557921 390.4545238309031 148.44392003908146 78.5230022282083 85.40454592752175 215.0442548578085 87.22781181218292 325.8937839087696 72.73260887909308 160.32013909669465 110.82389607104025 63.669629161612136 112.48028721213801
conv12_param_0 133.90247728576028
conv13/dw_param_0 239.08817004686594 290.4982044846505 296.31047937709207 70.66794662591174 427.11087078777535 117.15941979896391 375.072865345956 45.32826165503159 383.34196142501594 242.51529866613004 0.0 181.7677934751471 58.11113055385492 167.82532230485296 482.8314435692029 33.112553061979575 0.0 485.5005222527047 372.54756265947134 140.27881553342064 207.28397926446561 128.07732584343415 272.3919599422542 236.81580916084408 334.9320536568742 151.90683113838952 338.9296938944562 235.85065618907137 205.30393379341498 11.409404280854252 40.41622635173251 442.6610883546331 56.52720004142893 202.69163557776835 305.50208672622745 337.6062969793541 73.65494936466533 228.76104286462459 132.8336971021806 310.0517210168653 115.1254409112232 61.76002919904032 113.92899433089067 75.97568870878517 130.0569303006951 305.800896761616 276.0544367289274 152.68742398167785 125.46238948396704 151.5580178373724 202.15225822660054 462.3397117953013 392.63372775640454 175.6846653236605 229.27798281609373 303.9677655619128 61.69552921151574 211.95406916364593 319.38085718733294 209.3842862711952 279.4997003261192 370.0227162037489 159.85068983838227 251.05960123037332 237.88260801704504 328.6816794569634 36.63315881787232 343.5298194252975 102.81264039164323 444.1717269820741 265.91921531666094 233.11468284376517 267.5316792173388 301.82316278612524 54.54306864567617 465.8936632137098 240.5862251224014 687.5612541831936 381.9591543180597 72.14623452781656 426.57733375055983 224.60886813895874 251.76019296633274 295.3264807964906 141.50668145020833 277.5732730586751 346.1013935789752 144.94051395872185 182.88239290850706 348.69569384129363 250.6651225481344 262.1356792562441 189.78424872982464 260.1175441593887 357.5695933683937 7.462951034502624 66.28376783336572 126.13402666287799 233.14406765195187 221.9013170631881 217.80117583862707 311.7790936118768 157.67830274808765 267.1570066468693 372.21587826881273 103.72182559208447 227.73261554720648 152.36970627354108 370.13632864852093 399.943094015156 537.4435305748751 245.86781105380584 226.07713189020157 30.70270305164955 234.77963617034547 507.85857514958985 150.6961396598975 352.8633242930355 61.79169542072921 383.1484308620301 112.28463159137307 279.43296956797 107.21358691489974 227.49909051888898 567.0073433709146 169.6773426284627 115.75223197357421 213.77095685465585 50.2756180010284 193.5993674579772 27.381999731462646 269.32593661486874 203.17506272261392 11.248952726560098 83.77595090548292 296.1955154185377 422.54454497868693 261.26906365114166 70.56150161257398 281.5400037116604 278.20870434026205 218.73502734153922 175.8073592159182 291.0639699492077 337.42873995126325 131.8850858330579 394.3832954644207 86.083089909389 76.96196363196088 49.931605413322394 189.88542404957985 248.64137822548986 173.4758972467593 13.428362552165442 103.59615368533197 472.9507339848271 99.2798600739236 276.13777791083294 325.3851052504707 160.02667969487848 585.5978949651018 343.5507845597873 143.37733122883026 286.4325883939699 266.0020109576468 430.5582108619484 170.11281862125762 26.98910964149876 110.92899732609185 400.3521991401858 352.2761617208391 209.62047877774916 436.0665089980017 609.4176383786371 357.6606762698892 53.78444324447017 59.59097206909903 509.6027204719605 646.0045381173968 539.0062254816087 150.88092198041676 165.27020336232746 323.73372354876545 332.84767722792634 232.92146852350294 275.982459293293 463.0430886078205 346.6613115218454 282.91002387672665 275.93363755830484 101.05069412563692 711.5110387480489 240.93624509453048 451.1720882712445 131.00952547726993 250.25339233440246 447.3138121447212 84.30460923683252 265.39285852854573 29.683203729002685 151.7052158754362 165.49795743809594 75.69570892918908 334.92794708824044 211.05556904894826 251.88787447327965 295.90261893233594 331.7853487476725 18.207543251223175 165.81478823444633 313.96942863247546 220.03392479771853 324.43816302195717 476.323809792072 297.8555752203977 126.4856051896756 288.7693865529175 314.974943328851 162.80667188239383 326.814136543844 194.7270618802844 233.24028328970377 194.06648826970124 287.35162814678046 432.9043783410712 250.963643773336 323.3636689031309 193.68540683448262 483.6307656968432 220.39931721620997 130.0619000480337 89.19061081507506 190.6714736935549 264.3511926071218 301.50292990569767 225.22250070319058 23.70232875038523 473.5172034767752 229.74136593644636 281.0593866257186 302.4222923461076 468.3551680804618 211.4380035120811 235.14364797887103 81.06691114123923 484.25052633421046 176.77026770737942 122.990986768364 243.3206009602153 92.93251925267947 241.05375390847112 218.58127383656628 376.17282111462424 157.35874087981932 493.05490104741745 83.92738284588873 170.97152181687767 54.07222303543343 307.10032516618816 51.19640773237145 255.36505989231603 437.7623894477126 146.68569818415813 474.139889871346 69.74337552859735 285.09975678215443 404.12603565637613 315.90683008016407 123.28419446661796 33.507205309052594 237.74219705395606 85.6572906648991 256.02007108629886 230.37373822996693 259.56609480352853 158.44692233752045 82.40555073017664 0.0 446.6796151024088 587.4113801203463 173.95666175993938 85.33081126220738 357.8165401023436 240.764154894039 371.7159719627179 183.7643145905855 227.20938325960185 81.28008681649898 626.137858054885 230.22849052491657 539.4128291233948 259.49005334771545 51.929768216552844 96.8905724170603 188.08775542433403 282.4233742512629 121.83322524457773 374.4869857509248 153.5151146042673 501.09903784430463 196.53194905108847 303.6266556238307 95.46786559641899 110.97098732266934 218.21752166601462 146.3847991108801 194.85340834683748 406.7442238084866 342.5613796691472 351.98655427646185 346.67250749044325 424.728427286631 41.55243079133671 320.0111308928234 490.57277070322164 284.5904217654183 280.72276665041517 89.39243584611172 212.31615650623942 198.85516365766964 217.38721415662238 10.387129705086942 436.46195303382854 273.83211341732823 226.5695433053618 279.56772847937236 272.5433146792599 184.30570209344245 571.0841592769738 37.865091849449406 217.07135510309203 133.91047200360748 154.83061275445206 98.89113570141623 187.87050191612875 135.83479091629013 87.0352696222541 424.44571067499555 208.63704343587463 252.72076165895908 406.87653682219633 143.62938378549342 3.877396506599856 303.2266612094476 168.0977666976979 275.2811920348925 117.97155491654259 240.00055328256394 38.426367748769536 97.29050536664624 198.24460334730634 292.07636539497014 162.31622597440293 175.7005287657106 240.3333629232624 326.9275397453511 327.27111243273197 233.5613545311884 453.574371539449 2.6967790892722387 201.9850377762166 11.213526713237721 378.4491945878749 27.531733848701233 542.1906303115634 261.36876891228627 64.1432092845683 339.49967837892143 383.39300471372064 193.18600745287551 84.9853080800853 209.85681203772938 162.19066826814276 120.2045638895455 362.1075305036053 380.38544406568275 452.57121932284446 377.1258944809995 35.08693424938822 313.9650566655338 350.8528012523762 178.6586922427799 342.90939273902376 256.43664408044384 105.88381846498494 226.06904830491166 609.9944752251149 171.92655537911358 182.36244818729347 420.78295213097374 80.64819468877961 116.05711123408965 584.124865874019 84.59873440961243 174.37608438444659 134.36643249464558 398.7193622605319 299.21443381243495 198.60375022253956 180.48424827144098 362.5351473591095 279.27106788257413 191.9488421439721 225.604412163945 355.0371452346984 224.75832324278014 95.3086574997314 133.15911513169695 208.88310100913947 56.80683452381955 383.56658456922787 90.63970894646577 294.53095420166 279.9263488633503 410.5616224023727 80.5337516172279 207.05698369408097 136.9507208996826 588.2046731860281 109.78302175425392 119.14894081513577 31.6119620597068 238.43169244139014 363.20612725028974 324.8442571102441 294.26407507350365 402.4471310688927 276.6927520469936 183.30179081532359 446.419957616736 587.0972985394666 64.78563284185955 192.81751556372097 782.3304918694896 234.9202982344261 358.9658828445842 142.45716315939308 202.05301554704454 159.34188284297608 169.36898950363755 347.7549832231209 45.61316895544596 233.04245117875462 122.8964100652127 216.5770032245044 427.6593058721237 58.66628486568058 153.17957420132194 133.3117705985835 122.09912628932322 441.6167289474881 89.44641421587086 266.1175594844077 486.3772065615413 496.6431601579035 292.95299175294514 248.09841840210058 97.69372671258553 477.2727044046289 366.80102374137294 328.79930009029727 99.14818679467588 216.87018719259555 110.52536463093189 243.95327359184876 393.83045157653237 72.88357545005908 141.3879917783267 235.4047383747234 443.0452803302483 306.80042934939627 88.37715657944314 55.03954331395172 127.14028674293668 229.7202624368452 232.1788461486073 467.98962022494493 424.2193605868612 303.4505748197026 445.2753934417425 46.03901517642913 773.720045242169 296.3758686202164 299.45436310731134 420.23123831064675 285.4680152724324 238.72346042767526 130.20070610158984 248.3756236619994 141.61323970462493 365.8870445003816 136.8371838945041 246.4099315843566 243.97408411521332 255.11403582134122 111.10405360927784 692.7105920646887 97.80344023606789 136.71402709787418 159.236232781191 194.5567938028365 579.4391982622044 154.31641280135045 239.38940123955857 823.920270960562 266.2675600376425 163.0747344906117 124.69998130705693 365.31849660413593 233.2070454648935 44.24903122596963 681.9336400910607 232.61170087799817 236.94147828928925 312.25080344950584 96.41061613107135 207.37799286895157 123.16461360174394 102.70384180715799 286.73291751107644 109.65105636665861 249.431757142914 401.8281895947426 171.3536124082577 442.72193107380366 173.1048807515948 51.52232154861215 480.42379442333987 59.115430082252516 351.3920459343072 562.9589064621646 246.38682302224493 540.4415368916754 145.1301830227283 352.3223543865712 215.94587616275663 7.9337868634193205 402.98934692451326 194.95132151472154 135.2361606451203 91.99516395399695 660.2724927396043 299.7892156266152 482.7362186554884 501.6355269982312 225.74359516594228 126.34609938801164 382.25219760263815 417.0250357142787 284.82130174050326 342.7661049472098 549.5473333191048 177.09248152552905 365.43957959224974 236.131139438192 25.47094912357343 6.563272428944743 365.27124432367253 80.8087798567193 322.7817091320952 158.54247853373167 193.54968635362104 378.99903645206604 333.66071331957113 122.26662203023609 206.7860832716416 528.8346900808986 182.60417709543594 267.11818894239093 39.72743767284096 237.51163554921013 132.79231231620517 232.19805048818438 84.57972699888519 255.27284825568373 94.88698574165576 88.86069036294604 292.10954040424014 208.23183510848312 231.21388082109056 104.9913916878132 442.9515640257143 226.7428516943196 197.21082993049188 132.61900691587329 88.50265735622796 153.32516292413453 279.31560372174107 598.7120387696276 205.500339493599 552.9672935509252 38.79359002995183 322.5500728448991 329.5350027227889 152.32776758743412 10.148410068487916 153.96285566092695 57.032684900225355 308.13300222187127 472.62772011881424 188.42640961444908 303.26541757046806 79.43522430624779 102.27478911738473 210.8843419615817 388.08405627210936 138.18690866046074 450.2600038164317 147.63715999539082 89.04185585618416 84.68129066186016 357.8888120905484 160.80121220518797 176.10832377318818 134.2376247641619 432.69435588094575 138.50952525576113 190.40229765293037 102.23606993968248 298.7224710205589 222.5439148204692 175.84403827210377 579.1007242746076 170.08565978739955 133.178407899349 330.45630764928745 401.1518904228123 231.46812312150666 179.80822527952387 346.3861801646512 303.62734789643895 299.4542158063761 444.53675058323495 165.0174343138573 291.6930076919133 199.78033624353344 213.84205703655365 186.76111881379217 98.19447655317275 174.40998427228928 85.06589710614732 344.76694434935933 306.21770565923305 149.89007358147416 145.36152229969463 266.79981765958524 0.0 177.73282533613107 394.9091828386743 168.987083991411 251.0567022110291 226.75841612060483 51.43410193050983 246.91664331586486 283.3555208711583 229.94884222990672 340.92099303439727 289.4909192487579 310.0723185072101 139.83641230215443 261.0006770293271 182.60500651760867 431.809301655389 395.70140206424503 205.13240873358677 200.76066192117773 173.9707373725852 38.35015582639828 221.2197367651931 445.0718384553065 678.4756369884491 146.6908586404765 221.22373327809765 240.1377451283697 322.62760623742804 226.21598629904142 238.11761613549027 244.5616763701358 136.60922851634504 58.43726686324333 176.99278740162714 625.2215501688748 354.53317255398724 249.57699386607266 103.89241289754075 264.619402516106 209.48944213563553 387.5454420532007 380.08396571209516 127.52947958888072 196.429345480258 115.0732256028972 180.8094618382616 82.9040972873357 151.06944621697212 35.456643513555555 336.03832279421795 108.43263242919305 376.7261210958565 136.55320499152467 177.4191222047434 193.98339488215683 97.05532615173765 73.44741526340714 239.32664264608854 373.7383486890913 48.251161267226976 85.21553630474043 203.24522047990604 372.91005425092465 130.59728337385818 176.6532271222864 397.3365333494453 192.96391865454737 243.78103181752186 104.27467786626278 74.29863140569643 247.00311619220116 320.2209170491011 776.9689521489288 191.6687047878171 184.60280470309033 158.6677188384042 177.84711504504259 337.9795826495349 472.0219627897528 456.8331658119072 566.5886754005408 182.74661945076173 210.2742272788414 218.32820469731607 160.4183310761751 256.35059637096623 213.38701078218565 73.85207737325726 200.44084548208903 137.85626501035196 134.94071271305884 293.84452021342037 130.47321654483815 202.71037924051052 321.41955050727097 169.804221830093 437.4409549393242 251.1338152482448 128.35322662784978 157.00409011110068 329.78732395892183 368.3861481555506 349.21060841820054 267.24344083138084 236.00902075216058 324.2192398362247 408.2699628357997 413.80465243825404 75.1334474889065 256.5543474072761 350.1850323016654 105.32293872009907 207.43119067597326 365.8474027565618 176.82302033421252 359.1886632463463 186.31080381672362 359.40871936719157 144.41582305180546 201.67125611651636 235.45244669460882 433.3275030449976 308.48032124595153 162.53756725622813 356.7500783794651 399.4736255773339 115.42894897510865 110.92716084488684 271.26684966652243 297.05655057418863 51.77341783323154 570.562683379771 135.87503539232037 202.96799255764046 317.3252293794886 54.87425270852437 211.20716240609107 337.26754470142765 111.31977890549065 157.00144083958637 310.4018213526148 24.462225670749977 149.85136452101193 176.54583462211872 224.36681689345298 81.83557057007116 215.66404649187407 527.086395574338 200.91028690189012 0.0 43.31979774857279 195.04199491283094 124.82528391266065 154.44492500596917 355.8050948089885 96.07546123702544 67.45151343935771 324.8401465656266 135.14101138981522 301.8725522781838 406.84973328194343 142.51063505896846 495.8860184745901 104.03491523672595 329.6636653237713 311.30641893138227 334.67498197006216 122.58103153004507 217.68682289150817 259.2677641900669 386.8272584674374 436.4216344204071 63.65586512920306 177.5959868945943 28.958827513388133 385.7073182343684 328.2508194113703 144.19623459946635 447.79372506426756 285.05888721946144 260.23882638713826 231.3512057490715 190.0053774204166 225.2332380549683 241.54681456069324 25.292311046696586 510.69590513936686 52.113477555832205 133.75821481817079 77.76659027142053 184.50352033766978 408.3816661776017 408.49198183292657 302.4031707459346 118.34284920199492 245.17044132732462 206.76196352142694 96.1424913423738 223.4738890737152 559.4578922690371 198.89681835128692 207.88594689582348 57.93325778223447 554.5665272858427 341.9671908612365 180.36538478142984 201.07614928115518 0.0 68.25481832971575 370.76362372103944 62.21138762479759 215.75366953284262 111.20788781852714 181.71051547826596 304.6629624497991 74.26101614080463 407.7247664253341 202.5898208882054 352.9549191607792 299.62271754045463 80.59702336236134 327.81256384360034 269.1665037464903 489.2181377760124 228.52163049857398 112.09384225934039 370.23231881898556 8.013867442916101 297.51933436969784 148.6362390338639 544.9748859465029 452.0015133848324 172.35113612924152 428.89448879190184 94.5691973515201 215.15849823517448 503.25113660438893 418.16130513348514 67.7929773470897 330.05945947369406 68.6161633649082 167.68345941099818 149.29039679651956 387.40722709482367 25.176436958496144 367.1101251240955 613.146225163581 296.58754585230037 122.51169150261197 61.4996752277389 229.6186137616862 135.300137623834 150.59674367948995 367.98017917974533 93.64208062960057 220.45108084540723 313.47937099517594 20.96396306906062 32.21257288890891 156.36301560213008 232.54041500268042 238.3890636060648 477.68540452088064 296.42361501467957 188.505743449297 216.93095116915015 192.6203522807412 74.1141832907405 46.79924263955805 250.83967311711294 80.09406135170791 349.7687542552375 266.1856631587824 212.38652496443706 31.3244728677694 28.722443172412646 198.83484383715097 25.96450695393859 367.66926259214245 302.5259258270631 215.1411400174136 368.7970672872173 96.62897686879705 137.4319562938415 207.022622208028 170.77360699346548 290.4020328489816 638.3397978511858 121.05352507459936 99.6608926168934 325.3575543056263 60.152859339906584 169.80614344610993 472.1200684103393 354.97391506874465 265.0437310262686 153.73228656875796 146.48825811501044 128.5302231208446 33.69906093983957 255.21105418544207 222.06757787714585 356.5962461358536 285.0247587674078 97.84068020167416 49.790924829227016 347.7908860357002 430.1451636119326 23.178992322704033 147.63725206377643 91.03625374235763 340.54466876269277 346.85103560531445 276.53668305068345 105.75633104118374 359.0940468969646 98.80344790393293 197.03475308217853 262.3542255254487 209.47053593996068 185.22893721577762 195.56282281834117 368.89958108286856 374.434206527247 252.15914321772416 106.28705629390869 114.1137284179655 231.92927653349125 152.48121199118307 269.3501436373853 496.2769863334996 114.55114077151335 45.8905802324817 146.03226736565287 95.42120369452302 60.557637668663894 94.47478403928564 445.7262294879634 217.3478311695863 154.68038940690445 96.79283261845468 45.67091984174378 214.3517593601679 117.15083948409581 287.28996621214844 57.0012665601997 37.27318272309665 85.18669298875693 301.0225768370276 443.0850353872215 240.99532590145066 112.04033376739389 324.54478181256957 519.1208380022983 441.03577001048615 283.3130213832407 21.1078183352931 284.8694346126883 194.8035981186566 230.19493661258483 526.6116544884845 352.6451087127425 76.22797185694814 210.8495331330234 252.1234275761163 347.0774014313418 274.693147588881 142.68042533865992 496.60681361043976 340.5716128895105 281.12795366858535 198.5740060355803 58.926763217730624 73.76446817111062 68.11615932796948 476.68148893218364 73.67824361722258
conv13_param_0 139.468809960296
conv14_1_param_0 217.1146422377852
conv14_2_param_0 135.0363416954802
conv15_1_param_0 363.3996159133315
conv15_2_param_0 157.42843034937894
conv16_1_param_0 283.4637486587331
conv16_2_param_0 140.08829684717142
conv17_1_param_0 181.2954748251738
conv17_2_param_0 98.4925936862495
conv11_mbox_loc_param_0 78.35554222849741
conv11_mbox_conf_param_0 23.840445411172876
conv13_mbox_loc_param_0 137.15521691952256
conv13_mbox_conf_param_0 20.872327141368714
conv14_2_mbox_loc_param_0 148.2550070269057
conv14_2_mbox_conf_param_0 21.079114772846438
conv15_2_mbox_loc_param_0 156.4344902539485
conv15_2_mbox_conf_param_0 22.898235206626207
conv16_2_mbox_loc_param_0 163.6645534310883
conv16_2_mbox_conf_param_0 28.246942679043475
conv17_2_mbox_loc_param_0 262.46109743809575
conv17_2_mbox_conf_param_0 41.0664206633532
conv0 127.09531294463739
conv1/dw 9.80575588196213
conv1 8.725534939839873
conv2/dw 1.9291534932371108
conv2 10.46667294244941
conv3/dw 4.303411363302223
conv3 3.282428086750154
conv4/dw 2.722707380992166
conv4 12.861194829544774
conv5/dw 8.14223148691071
conv5 12.914025690864868
conv6/dw 8.498087609074318
conv6 12.954345010042436
conv7/dw 8.86981163462055
conv7 11.869861183012363
conv8/dw 12.109848479349331
conv8 13.538890519364656
conv9/dw 10.341688931740196
conv9 14.274272257292152
conv10/dw 7.078527584943497
conv10 15.882109691633188
conv11/dw 9.354184852521605
conv11 15.216211568715098
conv12/dw 14.52736874713161
conv12 17.071239627769025
conv13/dw 12.536143880617002
conv13 6.07709948903737
conv14_1 4.617166547391664
conv14_2 18.576033791260326
conv15_1 23.687392630657403
conv15_2 29.334557863200327
conv16_1 19.367164930941776
conv16_2 36.46877956019653
conv17_1 21.9186651757502
conv17_2 18.991479539652076
conv11_mbox_loc 14.52736874713161
conv11_mbox_conf 14.52736874713161
conv13_mbox_loc 4.617166547391664
conv13_mbox_conf 4.617166547391664
conv14_2_mbox_loc 23.687392630657403
conv14_2_mbox_conf 23.687392630657403
conv15_2_mbox_loc 19.367164930941776
conv15_2_mbox_conf 19.367164930941776
conv16_2_mbox_loc 21.9186651757502
conv16_2_mbox_conf 21.9186651757502
conv17_2_mbox_loc 14.065367677144204
conv17_2_mbox_conf 14.065367677144204
